0000
BC00
0000
0000
0000
0000
0000
0000
0000
0000
0000
0000
0000
0000
0000
3C00
0000
0000
0000
0000
0000
0000
BE00
C200
3800
0000
0000
0000
0000
0000
3800
0000
0000
0000
0000
0000
0000
0000
0000
BC00
0000
B800
0000
0000
0000
0000
0000
0000
C400
0000
0000
0000
0000
0000
0000
0000
0000
0000
0000
0000
0000
0000
4200
0000
