0000
0000
0000
0000
0000
0000
0000
0000
C000
0000
0000
4400
0000
0000
3E00
0000
0000
3E00
3800
0000
0000
3E00
4000
0000
0000
0000
0000
C400
0000
0000
4400
0000
0000
0000
0000
0000
0000
C200
0000
0000
0000
0000
0000
0000
0000
3E00
B800
0000
0000
0000
BE00
4200
0000
0000
4000
0000
BE00
0000
0000
0000
3800
0000
C400
0000
C000
0000
0000
BC00
0000
0000
0000
C000
C200
0000
0000
0000
0000
0000
0000
0000
0000
0000
0000
3E00
0000
0000
0000
0000
B800
0000
0000
0000
C000
0000
BC00
0000
C200
0000
BC00
0000
0000
3E00
0000
C200
B800
0000
0000
0000
C400
0000
0000
0000
0000
0000
0000
0000
0000
0000
0000
0000
0000
C400
0000
0000
0000
4200
4400
0000
4400
0000
0000
0000
0000
0000
0000
4200
0000
0000
C400
0000
BC00
0000
0000
0000
3800
0000
BE00
0000
C400
C000
0000
0000
0000
0000
0000
0000
4200
0000
0000
0000
0000
0000
0000
0000
0000
0000
0000
3800
0000
0000
4200
0000
0000
0000
0000
0000
4000
0000
0000
0000
0000
0000
BC00
3E00
0000
0000
0000
0000
BE00
0000
BC00
0000
0000
0000
0000
C200
0000
0000
0000
C400
0000
B800
4000
C000
0000
0000
0000
0000
3C00
0000
0000
3800
0000
0000
C200
0000
0000
0000
0000
0000
0000
3E00
0000
0000
0000
0000
0000
0000
0000
0000
0000
3E00
0000
4400
0000
3800
0000
0000
C400
0000
0000
0000
0000
0000
0000
4200
0000
0000
C000
0000
0000
0000
0000
C200
0000
4200
0000
0000
0000
0000
0000
0000
C200
4200
0000
3C00
0000
C200
0000
0000
0000
0000
0000
BC00
0000
0000
0000
0000
0000
0000
0000
0000
0000
0000
0000
C200
0000
4000
0000
0000
0000
0000
0000
0000
0000
0000
0000
C200
0000
0000
0000
0000
C400
0000
0000
B800
0000
0000
3C00
0000
3C00
0000
0000
0000
0000
0000
0000
BC00
0000
0000
0000
0000
4000
B800
0000
0000
0000
0000
0000
0000
4400
0000
BE00
0000
4200
0000
0000
0000
0000
3C00
BC00
0000
0000
0000
0000
0000
0000
0000
0000
3E00
0000
0000
0000
0000
0000
4000
3E00
0000
0000
0000
0000
C200
BE00
0000
B800
0000
0000
0000
0000
0000
BC00
C200
0000
0000
0000
0000
0000
0000
4000
0000
0000
0000
0000
0000
0000
0000
0000
4000
0000
0000
0000
0000
0000
C400
0000
0000
C400
0000
0000
B800
C000
0000
0000
0000
0000
3800
0000
0000
0000
0000
0000
0000
0000
0000
BE00
BC00
0000
0000
0000
4400
0000
3E00
0000
0000
0000
0000
0000
0000
0000
0000
3800
0000
3C00
0000
0000
0000
0000
B800
0000
0000
C400
0000
0000
0000
0000
0000
0000
3C00
0000
0000
0000
3E00
0000
0000
4200
0000
3800
0000
3E00
0000
0000
B800
0000
0000
0000
0000
0000
0000
0000
3C00
0000
0000
0000
0000
0000
0000
0000
0000
0000
3E00
0000
0000
0000
BE00
0000
0000
3800
0000
C400
0000
0000
0000
0000
BE00
0000
0000
0000
0000
0000
0000
0000
3E00
0000
3800
0000
4000
0000
C400
0000
0000
0000
0000
0000
B800
0000
0000
0000
0000
0000
4400
0000
0000
0000
0000
4400
0000
0000
3E00
0000
0000
4200
0000
0000
0000
0000
4200
0000
3800
0000
C000
0000
0000
0000
0000
0000
3800
0000
C400
0000
0000
0000
BC00
4200
0000
0000
0000
0000
0000
C400
0000
0000
0000
0000
0000
0000
0000
0000
0000
0000
C200
0000
0000
4000
0000
0000
0000
0000
0000
0000
3800
3C00
0000
0000
0000
4200
0000
0000
0000
0000
0000
3C00
BE00
0000
0000
0000
0000
0000
0000
0000
0000
C200
0000
0000
0000
0000
0000
0000
0000
0000
0000
BC00
0000
3800
C400
0000
0000
0000
C000
0000
0000
0000
0000
0000
0000
0000
0000
0000
0000
0000
0000
0000
3E00
0000
0000
0000
4000
C400
0000
0000
0000
0000
BE00
BC00
0000
C000
4000
0000
0000
0000
0000
0000
0000
0000
0000
0000
0000
0000
0000
0000
0000
0000
0000
0000
3E00
0000
0000
0000
0000
0000
0000
0000
B800
0000
0000
4200
0000
0000
3E00
0000
0000
0000
0000
0000
0000
0000
0000
BE00
0000
4400
0000
0000
0000
0000
0000
4200
3800
0000
0000
0000
0000
0000
0000
0000
0000
0000
B800
0000
0000
0000
3E00
0000
0000
0000
BE00
C200
0000
BC00
0000
4000
0000
0000
0000
0000
0000
0000
0000
0000
0000
0000
0000
0000
4000
0000
0000
0000
0000
0000
BE00
0000
0000
0000
0000
0000
0000
0000
0000
0000
3C00
0000
0000
0000
3E00
0000
0000
0000
0000
0000
0000
0000
0000
0000
0000
0000
4000
0000
0000
3E00
3800
0000
0000
4200
0000
0000
0000
0000
0000
0000
0000
0000
BC00
0000
0000
0000
0000
0000
C200
0000
0000
0000
0000
0000
0000
0000
C200
0000
C400
C400
0000
0000
0000
3C00
0000
0000
0000
0000
0000
0000
0000
0000
0000
0000
B800
0000
0000
0000
0000
0000
4000
0000
BE00
0000
0000
0000
0000
0000
4200
4000
0000
C400
0000
0000
0000
4000
0000
0000
0000
0000
0000
0000
0000
0000
0000
0000
0000
0000
0000
0000
0000
0000
B800
0000
0000
0000
0000
0000
0000
4400
0000
0000
BE00
C200
0000
0000
0000
C400
4400
0000
0000
0000
0000
0000
0000
0000
0000
0000
0000
0000
BE00
0000
0000
0000
0000
0000
0000
0000
0000
0000
0000
3E00
0000
0000
3C00
0000
0000
0000
0000
3C00
B800
4000
0000
0000
0000
0000
0000
0000
0000
0000
0000
0000
BC00
0000
0000
0000
0000
0000
0000
4400
0000
0000
0000
0000
0000
0000
0000
0000
0000
0000
0000
0000
0000
0000
0000
0000
0000
BC00
0000
0000
0000
0000
0000
4400
3E00
0000
0000
0000
B800
0000
0000
0000
0000
0000
0000
0000
3C00
0000
0000
0000
BC00
0000
0000
3800
0000
0000
0000
0000
0000
0000
0000
0000
0000
3E00
0000
0000
0000
BE00
0000
0000
0000
0000
BE00
0000
0000
0000
0000
0000
3E00
0000
0000
0000
0000
0000
0000
0000
0000
C200
0000
0000
0000
0000
0000
0000
0000
BE00
0000
3C00
0000
0000
C000
0000
0000
0000
0000
0000
0000
0000
0000
0000
0000
4200
0000
0000
0000
0000
0000
