0000
0000
C200
0000
3C00
0000
0000
0000
0000
0000
0000
0000
0000
0000
0000
0000
0000
0000
0000
0000
0000
0000
3C00
0000
0000
0000
C200
0000
0000
0000
0000
BE00
0000
0000
0000
0000
0000
0000
C400
0000
0000
0000
0000
0000
4000
0000
0000
0000
0000
0000
0000
0000
4000
0000
0000
0000
0000
0000
0000
C200
B800
0000
BE00
0000
4200
0000
0000
0000
0000
0000
0000
0000
0000
0000
0000
0000
0000
0000
0000
3E00
0000
0000
0000
0000
0000
0000
0000
0000
0000
0000
3800
0000
BE00
0000
0000
0000
3C00
0000
0000
3E00
0000
0000
0000
0000
3C00
0000
0000
0000
BE00
0000
0000
0000
0000
0000
0000
C400
0000
0000
0000
3C00
0000
0000
BC00
0000
0000
0000
0000
0000
0000
0000
BC00
4400
0000
0000
0000
0000
0000
0000
C200
0000
0000
0000
0000
0000
0000
0000
0000
0000
0000
0000
0000
0000
0000
0000
3E00
3E00
0000
4200
3800
0000
0000
0000
0000
0000
3C00
0000
0000
0000
0000
4000
0000
0000
0000
0000
0000
0000
3800
0000
0000
0000
0000
0000
0000
0000
0000
BE00
0000
0000
3C00
4400
0000
0000
0000
0000
0000
0000
0000
4400
0000
0000
4400
0000
0000
0000
0000
0000
0000
4200
0000
0000
3E00
0000
0000
0000
0000
C200
0000
0000
C000
0000
0000
0000
0000
0000
0000
0000
0000
0000
0000
3C00
0000
C400
0000
0000
0000
BC00
C400
0000
0000
0000
0000
0000
C400
0000
0000
0000
0000
0000
0000
0000
BE00
0000
3E00
BE00
0000
0000
