0000
0000
0000
0000
4400
C400
0000
0000
0000
0000
0000
B800
0000
0000
0000
0000
0000
0000
BC00
0000
0000
0000
0000
4000
C400
0000
4400
0000
3800
4200
0000
0000
0000
4400
B800
C200
B800
3E00
4000
0000
4400
0000
3800
0000
0000
0000
0000
0000
0000
0000
0000
0000
4000
4400
0000
0000
0000
4200
4400
4200
0000
BE00
0000
0000
0000
0000
0000
0000
0000
4200
0000
C000
0000
0000
0000
0000
0000
0000
B800
3E00
3C00
BE00
0000
0000
0000
3E00
0000
0000
0000
0000
4400
0000
0000
0000
0000
0000
0000
0000
3C00
0000
0000
0000
0000
0000
0000
0000
3E00
C200
0000
4200
3800
0000
0000
0000
0000
0000
C000
0000
0000
0000
0000
3E00
0000
0000
0000
0000
C200
0000
0000
0000
0000
0000
0000
0000
0000
0000
B800
4400
0000
0000
0000
B800
0000
0000
0000
0000
0000
0000
BE00
0000
0000
0000
0000
0000
0000
0000
0000
0000
0000
0000
0000
0000
0000
3800
0000
0000
3E00
0000
0000
0000
B800
0000
0000
C000
3C00
0000
0000
0000
0000
0000
C000
0000
0000
0000
0000
0000
0000
0000
0000
0000
0000
0000
0000
0000
0000
4000
4200
0000
0000
3800
0000
0000
0000
3800
0000
0000
BE00
0000
0000
0000
0000
0000
0000
0000
0000
0000
0000
0000
0000
0000
4000
0000
0000
0000
0000
0000
0000
0000
3800
3800
3E00
BE00
4200
B800
0000
BE00
0000
0000
0000
0000
0000
0000
0000
0000
0000
C200
0000
0000
0000
0000
0000
C200
3800
3C00
3800
0000
0000
0000
0000
C000
0000
0000
3800
0000
0000
0000
0000
0000
0000
4400
BC00
BE00
0000
0000
0000
0000
0000
0000
BC00
0000
0000
0000
C400
0000
0000
0000
C200
4400
C400
0000
0000
0000
0000
0000
0000
0000
0000
4000
0000
0000
0000
0000
0000
3E00
0000
0000
0000
BC00
0000
0000
C400
0000
BC00
0000
C200
3E00
0000
0000
0000
0000
0000
0000
BE00
C000
0000
0000
BC00
0000
0000
0000
0000
B800
0000
BC00
0000
0000
0000
0000
0000
3800
0000
0000
0000
0000
0000
3E00
3E00
3800
0000
4400
0000
0000
0000
0000
0000
4400
BE00
0000
0000
0000
3E00
0000
0000
0000
4200
0000
0000
0000
0000
4400
B800
0000
0000
0000
0000
0000
BC00
0000
0000
0000
4200
0000
0000
0000
0000
0000
0000
3C00
0000
0000
0000
0000
4200
3E00
3C00
0000
0000
0000
0000
0000
BC00
0000
0000
0000
0000
0000
0000
0000
0000
0000
0000
0000
0000
BC00
4400
0000
0000
0000
BE00
0000
4400
0000
0000
0000
0000
0000
0000
0000
0000
0000
C400
0000
0000
0000
B800
0000
0000
0000
0000
0000
BC00
0000
3C00
0000
0000
0000
0000
C400
C200
0000
4000
0000
BE00
0000
0000
0000
0000
0000
0000
0000
C400
3E00
0000
3C00
4200
0000
0000
0000
0000
0000
0000
4200
C000
0000
0000
BE00
0000
0000
0000
0000
0000
3800
0000
0000
3E00
0000
4000
3C00
0000
BC00
BC00
4200
0000
0000
0000
0000
4400
0000
0000
0000
0000
0000
0000
0000
C400
3E00
0000
BC00
0000
0000
0000
4000
C200
0000
0000
0000
0000
0000
0000
C000
C000
0000
0000
4400
0000
0000
3E00
0000
0000
0000
C000
4400
C000
0000
0000
4000
0000
0000
0000
0000
0000
0000
0000
0000
0000
BC00
0000
0000
0000
0000
0000
3C00
0000
0000
0000
0000
0000
0000
B800
0000
C200
0000
0000
C200
0000
0000
4000
0000
0000
0000
0000
0000
0000
4200
0000
0000
0000
3E00
0000
0000
4400
0000
0000
BE00
0000
C000
0000
0000
0000
0000
3C00
0000
0000
0000
0000
0000
0000
0000
0000
0000
0000
0000
0000
0000
0000
0000
B800
0000
0000
C400
0000
0000
0000
0000
0000
4400
3E00
0000
0000
0000
0000
0000
0000
0000
0000
0000
BE00
3800
0000
0000
4000
0000
0000
0000
0000
0000
0000
0000
0000
0000
0000
0000
0000
0000
0000
C400
0000
0000
0000
0000
0000
0000
0000
0000
0000
0000
0000
0000
3C00
3E00
3800
0000
BC00
0000
4000
0000
0000
0000
0000
0000
0000
0000
0000
B800
0000
0000
0000
0000
4400
0000
3E00
0000
BE00
0000
0000
0000
4200
C000
0000
0000
0000
0000
0000
0000
0000
0000
0000
0000
0000
0000
C400
3C00
BC00
0000
0000
0000
3E00
0000
0000
C000
4200
0000
0000
C400
0000
0000
0000
C200
0000
0000
0000
0000
0000
0000
0000
0000
C200
0000
0000
C000
3E00
0000
0000
0000
0000
0000
0000
0000
0000
0000
0000
0000
3800
0000
0000
0000
0000
4000
0000
0000
0000
0000
0000
0000
0000
C400
0000
0000
C000
4000
0000
0000
C000
3C00
0000
3C00
0000
0000
0000
0000
0000
0000
0000
0000
0000
0000
0000
0000
3E00
0000
C200
0000
0000
0000
BC00
0000
0000
0000
3C00
0000
0000
3800
0000
0000
0000
0000
BC00
0000
0000
0000
B800
0000
0000
3800
0000
BC00
0000
0000
3E00
0000
0000
0000
0000
0000
0000
0000
0000
C200
4400
0000
0000
C400
0000
0000
0000
0000
0000
0000
C400
0000
3800
0000
0000
C000
0000
0000
0000
0000
0000
0000
0000
0000
3800
0000
0000
0000
0000
0000
0000
0000
0000
0000
0000
0000
0000
C400
0000
0000
0000
3800
0000
0000
0000
4200
0000
4200
0000
0000
4400
0000
0000
0000
0000
C400
0000
0000
BC00
0000
0000
3E00
0000
0000
0000
0000
0000
0000
0000
0000
0000
C000
0000
C200
B800
0000
3C00
0000
3C00
4000
C200
BE00
0000
3800
0000
0000
0000
0000
C200
0000
0000
C200
BE00
3E00
0000
0000
0000
C400
C400
0000
0000
3800
0000
C400
0000
0000
0000
B800
0000
3E00
0000
0000
0000
0000
4000
3C00
3C00
0000
0000
0000
0000
0000
0000
0000
0000
0000
0000
0000
4400
BC00
0000
0000
0000
0000
3E00
0000
0000
0000
0000
0000
0000
0000
3C00
0000
4000
0000
0000
0000
BC00
0000
0000
0000
0000
0000
0000
0000
4400
0000
0000
BC00
0000
0000
0000
0000
BE00
0000
0000
0000
0000
0000
0000
0000
0000
0000
0000
0000
0000
0000
0000
0000
0000
0000
0000
C200
0000
0000
0000
0000
0000
0000
0000
0000
BC00
C400
4200
0000
0000
0000
C200
0000
0000
0000
4400
0000
0000
4200
0000
0000
0000
BE00
0000
0000
0000
4400
0000
0000
0000
0000
0000
0000
0000
0000
0000
0000
0000
0000
0000
0000
0000
0000
0000
0000
0000
0000
C200
0000
0000
4000
0000
0000
0000
0000
0000
0000
0000
0000
0000
0000
0000
0000
0000
B800
C000
0000
0000
0000
BE00
0000
0000
0000
0000
0000
C000
0000
0000
0000
0000
0000
BC00
0000
0000
0000
0000
0000
0000
0000
0000
0000
0000
0000
0000
0000
BC00
0000
BC00
B800
0000
0000
4000
0000
3800
BC00
BC00
0000
C000
0000
0000
0000
0000
0000
0000
0000
0000
B800
0000
0000
3800
0000
0000
BE00
0000
0000
0000
0000
0000
0000
0000
0000
0000
0000
0000
0000
0000
0000
0000
0000
0000
0000
0000
3C00
BC00
0000
0000
B800
0000
0000
0000
0000
0000
0000
0000
4400
0000
4400
0000
0000
0000
0000
0000
0000
0000
0000
0000
0000
0000
3C00
0000
0000
3800
0000
0000
0000
0000
0000
0000
0000
4400
0000
0000
0000
0000
0000
0000
0000
0000
BC00
0000
0000
BC00
0000
0000
0000
0000
0000
C400
0000
C400
0000
0000
4200
B800
0000
0000
3E00
C400
0000
0000
3C00
0000
4400
0000
0000
0000
C400
0000
0000
0000
4000
0000
0000
3800
0000
0000
0000
4000
0000
0000
3800
0000
0000
0000
0000
4400
0000
0000
0000
0000
0000
3C00
0000
0000
0000
0000
0000
0000
0000
C000
0000
0000
0000
0000
0000
C200
3E00
4400
0000
0000
0000
0000
0000
0000
0000
C200
C400
4000
C400
0000
4000
0000
BE00
0000
3E00
0000
0000
0000
0000
0000
0000
0000
0000
4000
0000
0000
0000
0000
0000
0000
3E00
4000
0000
0000
0000
0000
0000
0000
0000
0000
0000
4200
0000
0000
0000
0000
0000
0000
3C00
3800
0000
0000
0000
0000
0000
0000
0000
0000
C000
0000
0000
0000
0000
0000
0000
0000
0000
0000
4400
0000
0000
0000
4200
0000
0000
0000
C400
0000
0000
4400
0000
0000
0000
0000
0000
3C00
0000
0000
0000
3C00
0000
C200
0000
4200
0000
BC00
0000
0000
C200
BC00
0000
C000
0000
4000
0000
0000
BE00
C400
0000
C000
0000
0000
0000
0000
C000
C400
BC00
0000
0000
0000
0000
0000
C000
0000
3C00
0000
0000
0000
0000
0000
BC00
0000
0000
C000
0000
0000
0000
0000
0000
0000
0000
0000
C400
3800
4000
0000
0000
0000
0000
0000
0000
C400
3C00
0000
0000
0000
BC00
0000
0000
0000
0000
0000
C000
0000
0000
0000
0000
3E00
4000
0000
0000
0000
BE00
B800
0000
0000
3800
0000
BE00
3C00
0000
0000
0000
0000
0000
0000
BC00
0000
0000
C400
0000
0000
3800
0000
0000
0000
0000
0000
0000
0000
0000
0000
0000
BC00
0000
BE00
0000
0000
BC00
0000
0000
C000
0000
0000
0000
0000
0000
0000
4200
0000
0000
0000
0000
0000
0000
0000
4400
0000
0000
0000
4200
0000
0000
0000
4200
3800
0000
0000
0000
0000
0000
0000
4000
4200
0000
0000
C400
0000
BC00
0000
0000
0000
4000
BE00
0000
0000
0000
0000
0000
0000
0000
0000
0000
3E00
4200
0000
0000
0000
4000
4000
0000
B800
0000
BE00
0000
0000
0000
0000
0000
BE00
3800
0000
0000
0000
0000
0000
0000
0000
0000
0000
0000
0000
0000
0000
C200
0000
B800
0000
0000
0000
0000
0000
BE00
0000
0000
4400
C400
0000
0000
0000
0000
0000
0000
0000
0000
BC00
0000
4200
0000
0000
0000
0000
BC00
0000
0000
0000
0000
0000
0000
0000
0000
0000
0000
C200
0000
0000
BC00
0000
0000
0000
0000
0000
BE00
0000
0000
0000
0000
C200
0000
4400
0000
0000
0000
0000
0000
0000
BE00
4400
0000
0000
0000
0000
3800
B800
0000
0000
0000
0000
0000
C400
3C00
0000
0000
BE00
0000
0000
0000
0000
0000
BC00
0000
0000
0000
0000
0000
BC00
0000
0000
0000
BE00
3E00
0000
C200
0000
0000
0000
0000
0000
0000
0000
0000
3E00
0000
0000
0000
0000
0000
B800
4400
BE00
4400
0000
0000
0000
0000
0000
0000
4000
3E00
0000
0000
0000
0000
0000
4400
0000
BC00
0000
0000
4200
0000
3E00
0000
0000
0000
0000
0000
0000
0000
0000
0000
0000
0000
0000
0000
BC00
0000
0000
C000
0000
C200
0000
0000
0000
0000
C000
0000
0000
0000
0000
0000
0000
0000
0000
0000
0000
0000
0000
0000
0000
0000
0000
C000
0000
0000
0000
3800
0000
C000
0000
0000
4000
0000
0000
C400
0000
0000
C000
0000
4000
0000
0000
0000
4200
0000
C400
0000
0000
4200
0000
0000
0000
0000
0000
0000
0000
0000
0000
0000
0000
3C00
0000
0000
0000
3800
0000
0000
0000
0000
C000
3800
0000
3E00
0000
4400
0000
0000
0000
0000
0000
0000
0000
B800
0000
0000
0000
0000
0000
0000
3E00
0000
0000
0000
0000
0000
0000
0000
0000
C000
0000
0000
4000
B800
0000
0000
0000
0000
0000
0000
0000
0000
0000
0000
0000
0000
0000
0000
0000
0000
0000
0000
C400
0000
0000
0000
0000
0000
0000
0000
0000
0000
0000
0000
0000
0000
0000
0000
0000
0000
0000
0000
C200
0000
0000
0000
0000
0000
B800
0000
0000
0000
4400
0000
3E00
0000
4000
0000
0000
3C00
0000
0000
0000
0000
0000
0000
0000
0000
0000
BE00
0000
0000
0000
0000
0000
4000
0000
0000
0000
B800
0000
C200
BC00
0000
0000
0000
4200
0000
0000
3800
0000
0000
0000
0000
0000
0000
3C00
4400
0000
0000
0000
0000
0000
3E00
0000
0000
0000
0000
B800
0000
0000
0000
0000
0000
0000
0000
0000
4000
3C00
0000
0000
C000
0000
0000
0000
0000
0000
0000
C400
0000
0000
3800
0000
0000
0000
0000
0000
0000
3E00
0000
0000
0000
0000
BE00
0000
0000
0000
0000
0000
0000
0000
3800
0000
0000
0000
C000
0000
0000
4000
0000
0000
0000
0000
0000
3E00
0000
0000
3C00
0000
3800
4000
C200
4400
0000
BE00
0000
0000
0000
0000
C400
0000
C000
0000
3800
0000
0000
0000
4400
0000
0000
0000
0000
3E00
0000
0000
B800
BC00
0000
0000
C400
3E00
4000
0000
0000
0000
0000
C000
0000
C200
0000
0000
0000
0000
4000
C000
0000
BE00
4400
0000
0000
0000
0000
3C00
0000
0000
0000
0000
0000
0000
0000
0000
0000
B800
0000
0000
0000
0000
0000
0000
4000
C400
0000
0000
0000
0000
0000
C200
0000
0000
0000
0000
0000
0000
0000
4400
0000
3E00
0000
B800
0000
0000
0000
0000
C200
0000
0000
0000
0000
0000
0000
4200
0000
0000
0000
0000
4000
0000
3C00
0000
C000
C400
3800
BE00
4200
0000
C000
C400
0000
0000
0000
0000
0000
C000
0000
4400
0000
0000
0000
4000
3C00
BC00
4400
3E00
3C00
0000
4200
0000
0000
0000
C400
0000
0000
0000
3C00
0000
0000
0000
0000
0000
0000
0000
C400
0000
0000
0000
0000
0000
3E00
0000
0000
0000
C000
0000
0000
0000
0000
BC00
0000
0000
0000
0000
0000
BC00
0000
0000
0000
0000
0000
BE00
0000
0000
0000
0000
C400
BC00
C400
BE00
0000
0000
0000
3800
0000
4400
0000
0000
B800
0000
0000
0000
0000
0000
0000
0000
0000
0000
0000
0000
0000
0000
0000
0000
0000
0000
4200
0000
C400
4200
0000
0000
0000
0000
C200
0000
0000
0000
0000
0000
3E00
4200
0000
0000
0000
0000
3E00
0000
0000
0000
0000
0000
0000
3800
0000
3E00
0000
0000
0000
C400
0000
0000
0000
C000
0000
0000
BC00
0000
0000
3E00
0000
0000
0000
0000
BE00
0000
0000
0000
3E00
0000
B800
0000
3C00
0000
4000
0000
0000
4200
0000
0000
C200
0000
C400
0000
C000
0000
0000
0000
0000
0000
0000
0000
C000
0000
0000
0000
0000
0000
0000
C400
0000
0000
0000
0000
BC00
0000
C400
3C00
BE00
0000
0000
0000
0000
0000
3C00
0000
BE00
3800
0000
3800
BE00
0000
0000
0000
0000
0000
0000
C000
3800
0000
0000
0000
0000
0000
C400
4400
3E00
0000
0000
0000
BC00
C200
0000
C200
0000
0000
0000
0000
0000
0000
3800
4400
0000
4200
0000
0000
0000
0000
0000
0000
0000
0000
0000
0000
C200
4000
0000
0000
0000
3800
0000
0000
4000
0000
0000
0000
0000
0000
0000
0000
B800
0000
0000
0000
0000
0000
0000
0000
0000
0000
0000
0000
0000
0000
0000
0000
0000
0000
0000
0000
0000
0000
0000
0000
0000
C200
0000
0000
0000
0000
0000
0000
0000
0000
0000
0000
4400
0000
0000
0000
3C00
0000
0000
0000
0000
0000
0000
C000
0000
0000
0000
4200
4200
0000
BC00
0000
0000
C000
0000
0000
4000
0000
0000
0000
0000
0000
4400
0000
0000
BE00
0000
3C00
0000
0000
0000
4400
C200
0000
0000
0000
0000
4200
0000
0000
0000
BC00
0000
0000
0000
0000
0000
BC00
4400
0000
0000
0000
0000
0000
0000
C200
3800
0000
0000
C400
B800
0000
0000
0000
0000
0000
4400
0000
B800
0000
3C00
0000
C000
0000
0000
0000
0000
0000
0000
3C00
0000
0000
0000
0000
0000
C000
0000
4200
3E00
3800
0000
BC00
0000
0000
0000
0000
0000
0000
0000
0000
0000
0000
4000
0000
0000
BE00
0000
4400
0000
0000
0000
0000
0000
0000
0000
0000
BE00
0000
0000
0000
0000
0000
0000
0000
0000
0000
0000
4400
0000
0000
C200
C400
0000
0000
0000
0000
0000
0000
0000
0000
3E00
C400
3800
0000
0000
0000
0000
0000
0000
BC00
0000
0000
BE00
0000
0000
0000
3800
0000
0000
0000
0000
0000
0000
0000
0000
4400
0000
0000
0000
0000
0000
0000
BE00
0000
0000
0000
B800
0000
3E00
0000
0000
0000
0000
0000
0000
0000
0000
0000
C000
0000
0000
0000
BC00
0000
0000
0000
0000
0000
C000
0000
0000
0000
0000
3E00
0000
0000
0000
0000
0000
0000
0000
0000
0000
0000
C400
0000
0000
C200
0000
0000
0000
0000
4200
0000
3800
0000
0000
0000
0000
0000
C400
0000
BC00
0000
0000
0000
0000
4000
0000
0000
0000
3E00
4400
0000
C200
3E00
0000
0000
0000
C200
0000
4000
0000
3E00
0000
0000
0000
0000
BC00
0000
0000
0000
0000
0000
0000
0000
0000
0000
0000
0000
0000
0000
0000
0000
0000
0000
0000
0000
4000
0000
0000
0000
0000
0000
0000
0000
0000
C200
0000
0000
0000
0000
C200
0000
0000
4400
0000
4200
C200
0000
0000
0000
B800
0000
0000
0000
BC00
0000
0000
0000
0000
0000
0000
0000
0000
C000
0000
0000
0000
C400
0000
0000
C400
3800
0000
C200
0000
0000
0000
0000
0000
0000
0000
4000
0000
0000
0000
0000
0000
0000
0000
0000
0000
0000
0000
0000
4200
0000
0000
0000
BE00
C200
0000
0000
0000
0000
0000
0000
0000
0000
0000
C400
0000
0000
0000
0000
0000
0000
0000
0000
0000
0000
4000
0000
0000
B800
0000
0000
C000
0000
0000
3C00
0000
0000
0000
0000
0000
0000
3C00
4000
0000
C400
0000
0000
BC00
0000
C200
0000
0000
0000
0000
B800
0000
C000
0000
0000
0000
0000
C400
0000
0000
0000
0000
0000
4400
BE00
0000
0000
0000
0000
0000
0000
0000
0000
0000
0000
0000
B800
4000
0000
0000
0000
0000
0000
0000
4400
0000
0000
4000
0000
0000
BC00
0000
0000
0000
0000
0000
0000
0000
0000
0000
0000
0000
0000
0000
C400
0000
0000
0000
0000
0000
0000
0000
C400
0000
0000
0000
0000
0000
0000
4400
BE00
BE00
0000
0000
0000
0000
0000
0000
4000
0000
0000
0000
0000
4000
0000
0000
0000
0000
0000
4000
0000
3800
0000
0000
C400
0000
C000
C000
0000
0000
C400
0000
0000
0000
4400
0000
0000
C000
0000
0000
0000
0000
C200
0000
0000
0000
0000
0000
0000
0000
C000
0000
0000
0000
0000
4000
0000
0000
0000
0000
4400
4400
0000
0000
0000
0000
4000
C000
0000
0000
0000
C400
0000
0000
0000
BC00
0000
0000
0000
0000
0000
C000
0000
0000
0000
0000
0000
0000
0000
BE00
0000
0000
C200
0000
0000
3E00
4400
0000
0000
0000
0000
0000
0000
0000
0000
0000
0000
0000
C200
0000
0000
0000
0000
0000
0000
BC00
0000
0000
0000
0000
0000
0000
0000
4000
3E00
0000
0000
0000
0000
0000
0000
BC00
0000
0000
0000
3C00
3800
B800
0000
0000
0000
0000
C000
0000
BC00
0000
0000
0000
C400
0000
0000
0000
0000
0000
0000
0000
0000
0000
0000
0000
0000
0000
0000
0000
BC00
0000
0000
0000
0000
0000
BC00
0000
C200
0000
3800
4400
C000
0000
0000
0000
0000
0000
3C00
4200
0000
C200
0000
C400
3C00
0000
0000
0000
0000
0000
B800
0000
0000
4400
BE00
0000
0000
4200
0000
0000
3E00
0000
0000
0000
BE00
0000
0000
0000
B800
0000
0000
0000
0000
0000
BE00
0000
C000
0000
0000
0000
0000
0000
BE00
4200
0000
0000
0000
0000
0000
C200
0000
0000
0000
C400
4000
0000
0000
0000
0000
0000
3800
0000
0000
0000
0000
0000
0000
0000
0000
BC00
0000
0000
0000
0000
0000
0000
0000
4000
0000
0000
C400
0000
0000
0000
0000
0000
4000
C200
4200
0000
0000
3800
C400
0000
0000
0000
0000
0000
0000
0000
0000
3C00
0000
0000
0000
0000
0000
0000
0000
0000
0000
0000
0000
4400
0000
0000
0000
0000
0000
0000
BE00
3800
4400
0000
0000
0000
0000
0000
0000
0000
C200
BC00
0000
0000
BE00
0000
0000
0000
BE00
0000
3C00
0000
0000
0000
0000
0000
0000
0000
BC00
0000
0000
0000
0000
BE00
0000
3E00
4000
B800
0000
0000
C200
0000
4400
0000
0000
3800
0000
0000
0000
4400
0000
4200
B800
BC00
0000
0000
4400
0000
0000
0000
C000
BC00
0000
0000
0000
0000
0000
B800
0000
0000
0000
C200
0000
0000
0000
0000
0000
0000
BE00
0000
0000
C200
0000
BC00
0000
0000
0000
BE00
0000
0000
0000
0000
0000
0000
0000
0000
3C00
0000
B800
0000
0000
C000
0000
3800
0000
0000
0000
0000
0000
0000
0000
C200
0000
0000
0000
0000
0000
0000
0000
0000
0000
0000
0000
0000
0000
0000
BC00
0000
0000
0000
0000
0000
0000
0000
0000
0000
0000
4200
0000
0000
0000
BE00
0000
4200
0000
0000
4000
4200
0000
0000
0000
0000
3E00
0000
0000
0000
0000
0000
0000
0000
0000
0000
C000
0000
0000
0000
0000
0000
4400
0000
0000
0000
C000
0000
C000
0000
0000
B800
4400
0000
0000
3800
0000
4400
0000
0000
0000
0000
0000
0000
0000
0000
0000
0000
0000
0000
0000
0000
0000
0000
0000
0000
0000
0000
C000
0000
0000
0000
BC00
0000
0000
0000
0000
C000
0000
0000
0000
0000
0000
0000
0000
0000
0000
B800
4200
3C00
0000
0000
0000
C000
0000
0000
0000
0000
0000
0000
0000
0000
0000
3E00
0000
0000
0000
C400
B800
4000
4400
0000
0000
0000
0000
0000
0000
0000
0000
0000
B800
0000
0000
0000
0000
0000
0000
0000
0000
0000
0000
0000
0000
0000
0000
0000
0000
0000
0000
0000
0000
0000
0000
0000
0000
0000
0000
0000
0000
0000
0000
B800
0000
0000
0000
3800
BC00
0000
0000
C000
0000
0000
3C00
0000
0000
0000
0000
0000
0000
0000
0000
4400
0000
0000
C200
0000
C000
0000
0000
0000
BC00
C400
0000
0000
0000
4200
0000
0000
C400
0000
4400
0000
C000
0000
0000
0000
0000
0000
0000
0000
0000
BC00
0000
4000
0000
BE00
0000
0000
0000
3C00
0000
0000
0000
C000
3E00
0000
0000
0000
3E00
0000
0000
0000
0000
C400
C000
0000
0000
0000
0000
0000
0000
B800
0000
0000
0000
BE00
0000
0000
0000
3C00
0000
0000
0000
0000
4000
0000
C000
0000
C000
0000
4400
0000
0000
0000
0000
0000
C400
0000
BC00
0000
0000
4200
0000
0000
0000
0000
0000
0000
0000
0000
3C00
0000
C000
0000
0000
0000
0000
0000
0000
0000
0000
0000
C000
0000
0000
0000
0000
0000
0000
BE00
0000
0000
0000
0000
0000
0000
0000
0000
0000
0000
0000
0000
0000
0000
0000
0000
0000
0000
BC00
BC00
0000
0000
0000
0000
0000
0000
0000
0000
C400
0000
0000
0000
0000
0000
0000
0000
0000
0000
0000
BC00
0000
3E00
0000
0000
0000
0000
0000
0000
3E00
0000
0000
3800
0000
0000
0000
B800
0000
4200
0000
0000
B800
0000
0000
0000
0000
0000
0000
0000
BC00
0000
0000
0000
0000
0000
B800
0000
0000
0000
0000
3E00
0000
0000
0000
BC00
0000
0000
0000
0000
4200
C000
0000
0000
0000
0000
0000
0000
4200
0000
0000
0000
0000
0000
0000
0000
0000
0000
0000
0000
0000
0000
BE00
0000
0000
0000
0000
0000
BE00
C200
0000
0000
0000
0000
0000
0000
0000
0000
0000
0000
0000
0000
0000
0000
0000
0000
0000
0000
0000
0000
BE00
3800
0000
C400
B800
4200
0000
0000
0000
0000
3800
4200
0000
0000
0000
0000
0000
C000
0000
0000
0000
0000
0000
0000
0000
C000
0000
0000
0000
0000
0000
0000
C200
0000
0000
3C00
0000
0000
0000
0000
0000
4000
0000
0000
0000
3E00
0000
0000
0000
0000
3E00
0000
0000
0000
0000
0000
0000
0000
0000
0000
3800
0000
0000
0000
0000
C400
0000
0000
BE00
0000
0000
0000
0000
0000
0000
0000
0000
0000
0000
0000
0000
0000
3800
0000
0000
0000
3C00
4200
BC00
4000
3C00
0000
0000
0000
0000
3C00
0000
0000
0000
0000
0000
0000
0000
0000
0000
3800
0000
0000
0000
0000
C400
0000
0000
0000
0000
0000
0000
0000
B800
3800
C400
0000
0000
0000
BE00
3800
0000
0000
BE00
0000
C000
0000
0000
4000
0000
4200
0000
0000
4200
0000
0000
0000
0000
0000
0000
0000
0000
0000
0000
C200
0000
B800
0000
BE00
C200
0000
0000
0000
0000
0000
C000
0000
0000
0000
0000
C000
0000
0000
0000
0000
3C00
0000
0000
0000
BC00
4000
0000
0000
C200
0000
0000
4400
C200
0000
0000
0000
0000
0000
3800
0000
0000
3E00
0000
3C00
4000
0000
0000
0000
3800
0000
0000
0000
0000
0000
0000
0000
0000
BC00
0000
0000
0000
C200
0000
0000
0000
0000
0000
0000
B800
0000
0000
C400
0000
0000
C400
0000
0000
0000
0000
0000
0000
0000
C000
0000
0000
0000
0000
0000
0000
0000
C200
3800
0000
0000
0000
0000
4000
0000
0000
0000
0000
0000
0000
0000
0000
0000
0000
B800
0000
BC00
4200
0000
4200
0000
0000
3E00
0000
C000
0000
0000
0000
4000
0000
0000
0000
0000
0000
0000
BC00
0000
0000
0000
0000
0000
0000
0000
4400
0000
0000
0000
C200
C200
0000
0000
0000
0000
0000
0000
B800
B800
0000
0000
0000
C400
0000
0000
0000
C200
0000
C400
0000
0000
B800
3C00
0000
0000
0000
0000
0000
C200
0000
0000
0000
0000
4000
3800
0000
0000
0000
0000
4400
0000
0000
0000
BE00
0000
0000
0000
C400
0000
BE00
0000
0000
0000
0000
0000
0000
4000
0000
0000
0000
0000
0000
0000
B800
0000
0000
0000
C400
C000
0000
0000
0000
C000
0000
0000
0000
0000
0000
C200
0000
0000
0000
0000
0000
C200
0000
0000
0000
0000
0000
0000
0000
0000
B800
0000
BE00
0000
0000
C200
0000
0000
0000
0000
0000
0000
0000
0000
0000
0000
0000
B800
0000
0000
0000
0000
0000
4400
C000
C000
0000
0000
0000
0000
C400
0000
0000
0000
0000
0000
4400
0000
0000
0000
0000
0000
0000
0000
0000
C400
0000
0000
4000
0000
0000
3C00
0000
0000
0000
0000
0000
0000
0000
0000
0000
0000
BC00
3C00
0000
0000
4000
0000
C200
3E00
0000
0000
0000
0000
3E00
0000
0000
BC00
0000
0000
0000
3C00
0000
0000
B800
0000
0000
0000
0000
0000
BE00
0000
0000
0000
0000
0000
0000
0000
0000
0000
0000
0000
3800
3C00
0000
0000
BC00
0000
0000
0000
4400
0000
C200
0000
4400
4400
0000
0000
0000
0000
0000
0000
3C00
0000
0000
C000
0000
0000
0000
0000
0000
0000
3800
0000
0000
0000
0000
C200
BE00
0000
0000
0000
0000
0000
0000
0000
B800
0000
0000
0000
0000
0000
C000
0000
BE00
0000
C400
3C00
0000
4400
0000
3E00
0000
0000
0000
0000
C000
4000
0000
3C00
3800
0000
3E00
BE00
0000
0000
0000
0000
0000
0000
0000
4400
0000
BE00
3800
0000
0000
0000
BC00
0000
0000
0000
0000
0000
0000
0000
0000
0000
0000
0000
0000
0000
0000
0000
0000
0000
0000
3E00
0000
0000
0000
0000
BE00
BC00
0000
C000
BC00
0000
3C00
3C00
0000
0000
0000
B800
0000
0000
C400
C000
0000
4000
0000
3800
0000
0000
0000
0000
3800
3800
C400
0000
3E00
3E00
C400
0000
0000
0000
0000
0000
3E00
0000
0000
0000
0000
0000
C000
C200
0000
0000
0000
0000
0000
0000
0000
0000
3800
0000
0000
B800
0000
0000
0000
0000
0000
0000
0000
0000
BE00
0000
0000
0000
0000
0000
0000
0000
0000
0000
C200
0000
0000
0000
0000
0000
0000
C000
0000
0000
BC00
0000
4000
0000
0000
0000
0000
0000
0000
0000
0000
0000
0000
0000
BE00
0000
BE00
0000
0000
0000
0000
4000
0000
0000
0000
0000
0000
0000
0000
0000
0000
0000
C200
0000
0000
0000
0000
0000
0000
0000
C000
0000
0000
4000
B800
0000
0000
C000
0000
0000
BE00
C400
0000
0000
0000
0000
0000
0000
0000
0000
0000
C200
0000
4200
0000
0000
3C00
0000
C200
4000
0000
4200
0000
0000
0000
0000
0000
C200
4000
0000
0000
0000
0000
3800
0000
0000
0000
0000
0000
3800
0000
B800
0000
0000
0000
0000
0000
BE00
0000
0000
0000
0000
0000
4200
0000
B800
C400
0000
C000
0000
0000
0000
0000
0000
0000
3E00
0000
0000
0000
0000
BC00
0000
0000
0000
0000
4000
C000
0000
0000
0000
0000
BE00
0000
0000
0000
0000
0000
4400
4200
0000
0000
0000
0000
0000
0000
0000
0000
0000
0000
BC00
4200
B800
0000
0000
0000
4400
0000
0000
0000
0000
0000
0000
0000
0000
0000
0000
0000
4400
0000
0000
0000
0000
4400
0000
0000
0000
0000
0000
0000
4200
0000
C400
0000
0000
0000
0000
0000
0000
0000
0000
C000
0000
0000
0000
BC00
C000
3800
0000
0000
0000
3E00
0000
0000
0000
0000
3E00
0000
0000
0000
0000
0000
0000
0000
0000
B800
BC00
0000
0000
0000
0000
3C00
0000
0000
0000
0000
4400
0000
B800
0000
0000
4400
0000
0000
0000
0000
B800
0000
0000
B800
B800
0000
0000
0000
0000
0000
0000
4200
4400
0000
0000
0000
0000
3800
3800
0000
0000
0000
0000
C200
0000
0000
0000
C400
0000
4200
0000
3C00
4400
4000
0000
3800
0000
0000
0000
0000
BE00
C000
0000
0000
0000
0000
C000
0000
C400
0000
0000
0000
0000
0000
0000
0000
0000
0000
0000
0000
0000
0000
0000
0000
3E00
C200
0000
0000
0000
4000
0000
0000
0000
0000
0000
0000
0000
0000
0000
BE00
0000
3C00
0000
0000
0000
0000
4000
0000
BC00
0000
4200
0000
BE00
C200
0000
C400
0000
0000
4400
0000
0000
C200
0000
0000
0000
0000
0000
0000
4000
0000
0000
0000
0000
C200
0000
0000
0000
BC00
0000
C200
0000
0000
0000
0000
0000
0000
0000
0000
0000
0000
0000
0000
0000
0000
0000
0000
0000
0000
0000
0000
0000
BE00
0000
0000
0000
3E00
0000
0000
0000
0000
0000
0000
0000
0000
0000
0000
0000
0000
0000
0000
C200
0000
B800
0000
0000
0000
0000
C000
0000
0000
3C00
C200
0000
0000
0000
4200
0000
0000
0000
0000
0000
0000
0000
0000
0000
0000
0000
0000
0000
0000
0000
0000
0000
C000
BE00
0000
4400
0000
0000
0000
B800
4200
4400
0000
B800
0000
4200
0000
0000
0000
0000
0000
0000
0000
0000
0000
C200
0000
0000
0000
0000
3C00
0000
C400
0000
0000
0000
0000
0000
0000
4000
0000
3800
0000
0000
BE00
0000
0000
0000
0000
0000
BE00
0000
0000
4400
3800
0000
0000
0000
0000
0000
0000
0000
0000
0000
0000
C000
0000
0000
0000
B800
4200
0000
0000
0000
0000
0000
0000
BC00
0000
0000
4000
0000
0000
0000
0000
0000
3800
0000
0000
C400
0000
0000
0000
0000
0000
0000
0000
BE00
0000
0000
BC00
C000
0000
0000
0000
C000
4400
C200
0000
0000
0000
0000
0000
0000
0000
0000
0000
BE00
0000
0000
0000
0000
0000
BC00
B800
0000
C000
0000
0000
0000
0000
BC00
0000
0000
C000
4400
0000
0000
0000
0000
0000
0000
0000
0000
0000
0000
0000
0000
3800
C000
0000
0000
0000
0000
0000
3C00
0000
0000
0000
0000
C000
0000
3E00
0000
0000
BC00
0000
3E00
0000
0000
4400
0000
BE00
4000
0000
0000
C400
0000
0000
0000
0000
0000
0000
0000
0000
B800
0000
0000
0000
0000
0000
0000
0000
0000
0000
C400
3C00
0000
0000
0000
0000
3E00
0000
0000
3C00
3C00
0000
0000
0000
C200
0000
0000
0000
C000
0000
0000
4000
3E00
0000
0000
0000
0000
0000
0000
C200
0000
0000
0000
4000
0000
0000
C200
0000
0000
4400
3C00
0000
0000
0000
BE00
C000
0000
0000
0000
0000
3E00
0000
0000
0000
0000
3C00
0000
0000
0000
0000
0000
0000
BE00
0000
0000
0000
3C00
0000
0000
0000
0000
0000
C200
0000
BC00
0000
3800
0000
0000
0000
0000
0000
0000
0000
0000
0000
0000
3800
0000
0000
4200
0000
4400
0000
0000
0000
0000
3C00
0000
C200
0000
0000
4200
0000
0000
0000
0000
0000
0000
0000
0000
B800
4400
0000
0000
0000
BE00
0000
C400
0000
0000
0000
0000
0000
0000
0000
0000
0000
0000
0000
3800
0000
0000
0000
0000
BE00
3800
0000
3C00
0000
0000
0000
3800
0000
0000
0000
0000
0000
0000
0000
0000
0000
0000
4200
0000
3800
B800
0000
0000
0000
0000
0000
4200
0000
0000
0000
0000
C200
0000
0000
4400
4000
C400
0000
0000
B800
3C00
0000
0000
0000
0000
0000
0000
0000
0000
0000
0000
3800
0000
0000
0000
C200
0000
0000
0000
0000
0000
0000
0000
0000
0000
0000
0000
0000
0000
0000
4000
0000
0000
0000
0000
0000
0000
0000
0000
0000
3E00
0000
4400
0000
3800
0000
0000
3800
0000
0000
0000
0000
0000
0000
0000
0000
0000
0000
0000
0000
3C00
0000
0000
0000
C200
0000
BE00
C400
B800
BE00
0000
0000
3E00
0000
0000
0000
0000
0000
0000
0000
0000
0000
3E00
0000
0000
B800
0000
0000
0000
0000
0000
4200
4400
0000
0000
B800
4000
0000
0000
0000
0000
C400
0000
3800
C200
3E00
0000
0000
0000
0000
3C00
BE00
BC00
0000
0000
4400
3800
0000
0000
0000
0000
0000
0000
0000
0000
0000
0000
0000
BE00
0000
0000
0000
0000
0000
0000
0000
0000
0000
0000
C400
0000
0000
0000
0000
3800
0000
0000
0000
3C00
0000
0000
0000
0000
0000
0000
0000
4200
0000
0000
0000
0000
0000
0000
B800
3800
0000
0000
0000
0000
0000
4000
0000
0000
0000
0000
0000
BC00
0000
0000
0000
0000
0000
0000
0000
0000
0000
0000
0000
0000
0000
0000
0000
4400
0000
0000
0000
0000
3E00
0000
0000
C200
0000
0000
0000
0000
0000
0000
0000
0000
0000
0000
0000
0000
0000
0000
0000
0000
0000
0000
0000
0000
0000
B800
C000
0000
0000
0000
0000
3800
C200
0000
0000
4200
0000
0000
0000
0000
3C00
0000
C000
0000
3800
3C00
C400
0000
0000
0000
0000
3C00
0000
4000
0000
0000
0000
0000
0000
0000
0000
0000
4200
0000
0000
0000
C200
0000
0000
0000
0000
BC00
0000
BE00
0000
0000
0000
0000
0000
0000
BE00
4400
0000
0000
3800
C200
0000
0000
0000
0000
0000
0000
0000
0000
0000
0000
0000
0000
0000
BE00
0000
0000
3E00
0000
0000
0000
0000
0000
0000
0000
0000
0000
C000
0000
C200
0000
0000
0000
0000
B800
0000
4200
0000
0000
0000
0000
0000
C200
0000
0000
0000
0000
C200
4000
0000
0000
0000
0000
0000
B800
0000
0000
3C00
0000
0000
0000
3C00
0000
3800
B800
0000
0000
0000
0000
0000
BC00
0000
BC00
0000
0000
0000
0000
0000
0000
0000
0000
0000
0000
3E00
0000
0000
0000
4200
4200
3800
3E00
0000
0000
0000
0000
0000
0000
3800
0000
0000
0000
0000
0000
0000
0000
0000
0000
0000
0000
0000
0000
0000
0000
0000
3C00
0000
0000
0000
0000
4200
BE00
0000
0000
BC00
0000
B800
0000
0000
0000
0000
0000
0000
0000
0000
0000
0000
BE00
0000
0000
C200
0000
0000
3E00
0000
3C00
0000
C200
0000
0000
3C00
0000
0000
0000
0000
0000
0000
4400
0000
4000
0000
0000
0000
C400
0000
0000
0000
0000
0000
0000
0000
C200
0000
0000
0000
0000
0000
0000
0000
3E00
3800
0000
0000
0000
0000
4200
0000
0000
3E00
0000
0000
0000
0000
4400
0000
0000
0000
0000
0000
3C00
0000
0000
0000
0000
0000
0000
0000
0000
0000
0000
0000
4000
0000
C000
0000
0000
0000
4200
0000
4200
0000
0000
3C00
0000
3E00
3E00
0000
3E00
BE00
C400
0000
0000
0000
0000
B800
4400
0000
0000
0000
0000
0000
0000
0000
0000
0000
0000
4200
0000
0000
0000
0000
0000
0000
0000
C000
0000
0000
3E00
0000
0000
0000
0000
0000
0000
0000
0000
0000
0000
0000
0000
0000
0000
0000
B800
0000
4000
0000
4400
3C00
3800
0000
0000
0000
0000
BE00
0000
0000
0000
0000
0000
0000
4400
0000
4400
0000
0000
0000
0000
C000
0000
0000
0000
0000
0000
0000
0000
0000
0000
0000
0000
B800
0000
0000
0000
0000
0000
0000
0000
4200
0000
0000
0000
0000
0000
3C00
0000
0000
C000
0000
0000
4000
0000
0000
0000
0000
0000
C200
0000
0000
0000
0000
0000
0000
0000
0000
0000
0000
3E00
4000
0000
0000
0000
4400
0000
0000
0000
0000
0000
0000
0000
0000
0000
0000
0000
C400
0000
0000
0000
0000
0000
0000
0000
0000
0000
0000
0000
0000
0000
0000
0000
C000
BC00
0000
0000
0000
0000
0000
3800
0000
0000
0000
0000
0000
4000
0000
0000
0000
0000
0000
0000
0000
0000
4000
0000
0000
3E00
0000
0000
0000
0000
0000
0000
0000
0000
0000
0000
3E00
0000
0000
0000
0000
0000
0000
B800
0000
0000
0000
0000
0000
4200
C200
C400
0000
C200
3800
0000
3C00
0000
0000
0000
4400
0000
C200
3E00
C000
0000
0000
0000
0000
0000
0000
0000
0000
0000
0000
BC00
0000
0000
0000
0000
0000
BC00
0000
0000
C200
0000
0000
0000
0000
0000
0000
0000
0000
0000
4200
BC00
0000
0000
0000
0000
0000
0000
0000
0000
0000
0000
0000
0000
0000
0000
0000
0000
0000
0000
0000
0000
0000
C000
0000
0000
4200
0000
0000
0000
C200
0000
0000
0000
0000
0000
0000
0000
0000
0000
0000
3C00
0000
0000
0000
0000
C000
0000
0000
0000
0000
C200
0000
0000
0000
0000
0000
3C00
0000
3C00
C400
0000
3800
0000
0000
0000
B800
0000
0000
C200
0000
0000
0000
C400
0000
0000
3C00
3800
0000
0000
0000
0000
0000
BC00
0000
0000
BC00
0000
0000
0000
0000
0000
0000
0000
0000
0000
BE00
0000
BE00
B800
0000
0000
0000
BC00
0000
4400
0000
0000
0000
C000
0000
0000
BE00
0000
0000
0000
0000
0000
0000
C000
4200
0000
4200
3C00
0000
0000
0000
4000
0000
0000
0000
BC00
0000
0000
0000
0000
4200
0000
0000
C000
3C00
0000
0000
0000
0000
0000
0000
0000
0000
0000
0000
0000
0000
0000
0000
0000
0000
0000
0000
0000
0000
0000
4200
0000
0000
3C00
0000
0000
0000
0000
0000
0000
0000
0000
0000
C000
0000
0000
0000
0000
C200
0000
0000
3800
4000
0000
BC00
0000
0000
0000
0000
0000
0000
B800
0000
0000
0000
0000
0000
0000
0000
0000
0000
0000
0000
C000
BE00
0000
0000
BE00
0000
0000
0000
0000
0000
0000
0000
0000
0000
4200
BE00
0000
0000
0000
0000
C200
0000
0000
0000
3E00
0000
0000
0000
3E00
0000
BE00
0000
0000
0000
0000
4000
0000
0000
3800
BC00
0000
0000
0000
0000
0000
0000
0000
0000
0000
0000
0000
0000
0000
0000
0000
0000
0000
0000
0000
0000
0000
3800
0000
4000
0000
0000
0000
0000
0000
0000
0000
4400
0000
3C00
0000
BC00
0000
3C00
C200
0000
0000
B800
3E00
0000
3E00
0000
0000
0000
0000
0000
0000
0000
0000
0000
0000
0000
0000
C000
0000
0000
0000
0000
0000
0000
0000
0000
0000
0000
0000
0000
0000
0000
0000
0000
0000
0000
0000
0000
0000
0000
0000
3C00
0000
0000
0000
0000
0000
0000
0000
0000
0000
C400
0000
0000
0000
0000
0000
4200
0000
C200
3E00
0000
0000
0000
0000
C400
3C00
0000
0000
0000
0000
0000
0000
B800
0000
0000
0000
0000
BC00
C000
0000
0000
0000
0000
3C00
0000
C000
0000
0000
0000
0000
0000
0000
0000
0000
0000
0000
0000
0000
0000
0000
0000
0000
0000
0000
0000
0000
0000
4400
C200
0000
C000
0000
0000
0000
0000
0000
C000
0000
0000
0000
0000
0000
0000
0000
0000
0000
0000
0000
0000
0000
4200
0000
0000
B800
0000
3E00
0000
0000
4400
0000
0000
0000
0000
0000
C000
0000
0000
0000
0000
0000
0000
4000
0000
B800
3C00
0000
0000
0000
0000
0000
C000
4200
0000
0000
0000
0000
0000
0000
0000
0000
0000
0000
0000
BC00
0000
C000
0000
3C00
0000
0000
0000
0000
4200
C000
0000
0000
4000
0000
0000
B800
0000
0000
0000
0000
0000
BC00
0000
0000
0000
0000
0000
0000
C200
3E00
0000
0000
0000
0000
0000
0000
0000
0000
0000
0000
0000
C400
0000
0000
C200
0000
3E00
4400
0000
0000
3E00
0000
0000
3800
0000
0000
0000
C200
4000
0000
0000
0000
0000
0000
0000
0000
0000
0000
0000
0000
C200
0000
0000
0000
0000
0000
3800
0000
0000
0000
0000
0000
0000
0000
0000
0000
0000
0000
BC00
0000
0000
0000
0000
0000
0000
C000
0000
0000
0000
0000
3800
0000
4000
0000
0000
0000
0000
0000
0000
0000
0000
0000
0000
4400
0000
0000
3E00
4400
0000
0000
0000
0000
C400
0000
BC00
3E00
0000
4400
0000
C000
0000
0000
C200
0000
0000
0000
3800
3C00
3800
0000
0000
C000
0000
0000
0000
0000
C400
0000
0000
0000
C000
0000
0000
BE00
0000
0000
0000
0000
0000
0000
0000
C400
C200
4200
0000
0000
4000
3C00
4400
0000
C400
3C00
3C00
0000
0000
C400
0000
3800
3800
0000
0000
0000
0000
0000
0000
0000
0000
0000
0000
0000
0000
0000
0000
0000
0000
0000
4200
0000
4200
0000
0000
4400
BE00
0000
0000
0000
0000
BC00
0000
0000
0000
0000
0000
0000
0000
0000
BC00
C400
0000
0000
C400
0000
0000
3E00
0000
0000
0000
4000
0000
0000
4200
0000
0000
0000
0000
0000
0000
0000
0000
0000
0000
0000
C400
0000
0000
3800
0000
0000
0000
0000
0000
0000
0000
0000
0000
0000
0000
0000
0000
0000
0000
C400
4400
0000
0000
0000
0000
0000
0000
4200
0000
0000
0000
0000
0000
B800
0000
0000
0000
0000
0000
0000
0000
0000
BE00
0000
0000
0000
0000
0000
0000
0000
0000
0000
0000
3E00
0000
0000
0000
0000
3C00
0000
0000
0000
0000
0000
0000
0000
B800
0000
0000
0000
0000
0000
0000
0000
0000
3800
0000
0000
0000
0000
0000
0000
0000
0000
4200
0000
0000
0000
3E00
0000
BC00
0000
0000
0000
0000
0000
0000
0000
0000
0000
0000
3C00
0000
0000
0000
0000
0000
0000
0000
0000
0000
0000
0000
0000
3E00
0000
3C00
0000
B800
0000
0000
0000
3C00
0000
0000
0000
C400
0000
0000
0000
0000
0000
0000
0000
0000
0000
0000
4200
4200
0000
4400
0000
0000
0000
0000
0000
C400
3800
0000
4000
0000
0000
C400
0000
0000
0000
0000
0000
0000
4000
0000
0000
0000
0000
0000
C200
0000
0000
3E00
0000
B800
0000
3800
0000
0000
0000
0000
0000
BE00
BC00
3800
3E00
B800
0000
0000
0000
0000
0000
0000
0000
0000
0000
0000
B800
BE00
0000
0000
3C00
0000
4000
0000
0000
0000
0000
0000
4400
0000
0000
0000
0000
0000
0000
0000
0000
0000
0000
0000
C200
0000
4200
0000
0000
4000
0000
3E00
0000
0000
0000
0000
B800
BE00
4400
BC00
0000
0000
C000
0000
0000
0000
0000
0000
0000
0000
3C00
C200
0000
0000
4200
0000
0000
0000
0000
0000
0000
3800
0000
0000
0000
C000
0000
0000
0000
0000
C000
0000
0000
0000
0000
0000
0000
0000
0000
0000
0000
4200
3C00
0000
0000
0000
0000
0000
0000
0000
0000
0000
C400
0000
0000
0000
0000
0000
0000
0000
0000
0000
C400
C000
0000
0000
0000
0000
4400
0000
0000
0000
0000
0000
0000
0000
BE00
0000
3C00
0000
0000
0000
C200
4000
0000
0000
0000
0000
0000
0000
0000
0000
0000
0000
C200
0000
0000
0000
BC00
0000
0000
B800
0000
0000
B800
0000
0000
0000
3800
0000
0000
0000
0000
0000
C000
0000
0000
BE00
0000
0000
0000
BE00
0000
0000
C400
C000
C000
0000
C200
0000
0000
0000
0000
0000
3800
0000
0000
3C00
BC00
0000
4000
0000
0000
0000
0000
0000
0000
0000
0000
3800
0000
0000
3E00
C400
0000
4200
0000
0000
0000
0000
3E00
4200
0000
0000
0000
0000
B800
0000
0000
0000
0000
0000
0000
0000
0000
0000
3800
C000
0000
0000
0000
0000
3C00
BE00
0000
0000
0000
0000
C200
0000
C000
0000
0000
0000
0000
0000
BC00
0000
0000
0000
0000
0000
3E00
0000
0000
0000
0000
0000
C200
0000
0000
0000
0000
0000
0000
0000
3E00
0000
0000
0000
0000
0000
0000
0000
0000
0000
0000
C200
3800
0000
0000
0000
0000
BE00
0000
BC00
0000
0000
0000
BC00
0000
0000
0000
0000
C400
0000
0000
0000
3C00
4000
0000
0000
0000
0000
BE00
0000
0000
0000
0000
0000
BE00
0000
0000
0000
0000
0000
0000
0000
0000
0000
0000
0000
0000
C000
3E00
0000
0000
0000
0000
3C00
0000
0000
0000
0000
4000
0000
0000
0000
0000
0000
0000
0000
0000
0000
0000
0000
0000
0000
0000
C400
0000
0000
0000
0000
4400
0000
0000
0000
0000
BC00
0000
0000
0000
0000
0000
C200
4400
0000
0000
0000
0000
4400
4000
0000
0000
BE00
0000
0000
0000
0000
0000
B800
0000
0000
0000
0000
0000
C400
0000
0000
0000
0000
0000
0000
0000
0000
0000
0000
3800
0000
3C00
C000
0000
C000
0000
0000
0000
0000
0000
0000
0000
4200
0000
0000
0000
0000
BE00
0000
0000
3E00
0000
0000
0000
0000
0000
0000
4000
0000
0000
0000
4000
0000
0000
0000
0000
0000
0000
0000
0000
3C00
0000
0000
0000
0000
B800
0000
0000
0000
BE00
0000
0000
B800
0000
0000
0000
C400
3800
C000
0000
0000
0000
B800
0000
0000
0000
0000
0000
0000
0000
0000
0000
0000
BC00
4000
0000
0000
0000
0000
3E00
0000
0000
0000
0000
0000
C400
0000
0000
C400
3E00
0000
0000
0000
C000
C000
BC00
0000
0000
C400
B800
0000
0000
0000
0000
C400
0000
0000
0000
0000
0000
3E00
0000
4200
0000
0000
0000
0000
0000
0000
0000
0000
0000
0000
0000
0000
0000
0000
0000
0000
0000
0000
0000
0000
0000
0000
0000
0000
0000
0000
0000
0000
3C00
0000
0000
0000
0000
0000
0000
0000
0000
0000
0000
0000
0000
0000
4400
0000
0000
0000
0000
BE00
0000
BE00
0000
0000
C000
0000
0000
0000
0000
0000
0000
C000
0000
0000
0000
4400
4000
4200
0000
0000
0000
0000
0000
0000
0000
4000
0000
0000
0000
0000
0000
0000
0000
0000
3800
0000
0000
0000
0000
0000
0000
0000
0000
0000
0000
3C00
C000
0000
0000
0000
0000
4000
BC00
0000
4000
4000
0000
0000
0000
0000
3C00
4000
0000
0000
0000
0000
0000
0000
0000
0000
0000
0000
3C00
0000
0000
0000
0000
0000
0000
0000
BE00
0000
BE00
0000
0000
0000
0000
0000
0000
0000
0000
0000
0000
0000
C400
0000
B800
0000
0000
0000
0000
3E00
0000
0000
0000
0000
0000
4400
0000
0000
0000
0000
C000
0000
0000
0000
0000
0000
BC00
0000
0000
0000
0000
0000
0000
0000
0000
0000
0000
0000
0000
3E00
0000
BC00
0000
0000
0000
0000
0000
0000
C000
0000
0000
0000
0000
0000
4400
0000
BE00
0000
0000
0000
C000
0000
3800
B800
0000
0000
0000
0000
0000
0000
0000
0000
C000
0000
0000
0000
4400
0000
0000
0000
0000
0000
0000
C400
B800
0000
0000
0000
3E00
0000
C000
0000
0000
0000
0000
0000
0000
0000
0000
3C00
0000
0000
0000
0000
0000
3E00
0000
4000
0000
4200
0000
0000
0000
0000
0000
C000
0000
C400
0000
4200
0000
0000
4400
0000
0000
0000
0000
3E00
3E00
0000
0000
0000
0000
3E00
3C00
0000
0000
0000
4000
B800
0000
0000
0000
0000
0000
0000
C200
BC00
0000
0000
0000
0000
C200
0000
0000
0000
0000
0000
0000
0000
0000
BC00
0000
0000
0000
0000
0000
0000
0000
0000
0000
0000
4000
0000
4000
0000
0000
0000
0000
0000
3E00
C000
0000
0000
0000
BE00
C200
0000
0000
BE00
0000
0000
0000
0000
0000
3800
0000
BE00
0000
0000
0000
0000
0000
0000
B800
0000
0000
0000
0000
0000
C000
0000
0000
0000
0000
0000
0000
0000
0000
0000
0000
0000
0000
0000
BC00
0000
0000
0000
0000
0000
0000
0000
0000
0000
0000
0000
C200
0000
0000
0000
0000
0000
0000
0000
4000
0000
0000
4200
0000
0000
0000
0000
0000
0000
B800
0000
0000
0000
4200
0000
0000
0000
3800
0000
0000
0000
0000
0000
0000
0000
0000
C200
0000
0000
0000
BC00
0000
4400
0000
0000
C000
4400
C200
0000
0000
0000
0000
0000
0000
4400
0000
0000
3C00
0000
0000
0000
0000
0000
C000
0000
0000
0000
0000
0000
C400
0000
0000
0000
3E00
0000
0000
0000
0000
C400
0000
0000
3C00
0000
3800
0000
0000
0000
0000
0000
0000
0000
0000
0000
0000
0000
C000
0000
0000
0000
0000
0000
0000
0000
0000
0000
0000
0000
0000
0000
0000
0000
0000
4000
0000
0000
0000
0000
0000
0000
3E00
0000
0000
C000
3800
0000
0000
0000
0000
0000
0000
0000
0000
0000
4400
4400
3800
0000
3C00
0000
0000
0000
0000
0000
0000
0000
0000
0000
0000
0000
0000
C000
0000
0000
0000
0000
0000
0000
3800
0000
0000
0000
0000
0000
0000
0000
0000
3E00
0000
0000
0000
0000
0000
0000
BC00
0000
3E00
C400
0000
0000
0000
0000
C000
0000
0000
0000
0000
3C00
0000
0000
4400
0000
0000
0000
0000
0000
4000
0000
0000
0000
4400
0000
4000
BC00
4400
0000
0000
3E00
0000
0000
0000
0000
0000
0000
0000
3E00
0000
0000
0000
0000
0000
0000
0000
0000
4000
0000
0000
0000
0000
0000
0000
0000
0000
3C00
0000
0000
4400
0000
0000
0000
0000
0000
0000
B800
0000
0000
0000
0000
0000
0000
0000
C000
0000
0000
0000
0000
0000
0000
0000
0000
0000
0000
0000
0000
0000
0000
0000
BC00
0000
0000
0000
0000
0000
0000
0000
0000
0000
0000
B800
0000
0000
0000
0000
0000
0000
0000
BC00
0000
0000
0000
C200
BC00
3800
4400
0000
0000
BE00
0000
0000
0000
0000
3800
4200
4400
4000
0000
0000
0000
0000
0000
0000
0000
0000
0000
0000
0000
0000
0000
0000
0000
3800
B800
0000
0000
0000
0000
B800
0000
0000
4200
0000
0000
0000
0000
0000
0000
0000
BE00
0000
0000
0000
0000
4400
0000
C000
0000
C000
0000
0000
0000
4200
0000
0000
0000
0000
0000
0000
0000
0000
0000
0000
0000
C000
0000
0000
0000
0000
0000
0000
0000
0000
0000
0000
0000
0000
C200
B800
4200
0000
0000
0000
0000
C400
0000
0000
0000
4400
0000
C400
BE00
0000
C200
0000
0000
0000
0000
0000
0000
0000
0000
0000
0000
C200
0000
BE00
0000
C000
0000
0000
0000
C200
0000
0000
BC00
0000
0000
0000
0000
0000
0000
0000
0000
0000
0000
0000
BE00
C200
0000
0000
0000
0000
0000
4400
4400
BE00
0000
0000
0000
0000
0000
0000
0000
C000
0000
0000
0000
0000
0000
3E00
0000
B800
0000
0000
0000
0000
C400
0000
0000
0000
4400
0000
0000
BE00
0000
0000
C400
0000
0000
C400
C200
4200
0000
0000
0000
0000
0000
3800
0000
BE00
0000
4200
0000
0000
0000
0000
0000
4000
0000
0000
0000
0000
B800
0000
4200
C400
0000
3E00
0000
0000
C400
0000
0000
0000
0000
0000
0000
BE00
0000
0000
0000
4000
4400
0000
0000
0000
0000
0000
0000
0000
C200
0000
4000
0000
0000
0000
3C00
0000
0000
0000
0000
0000
0000
0000
0000
0000
0000
0000
0000
0000
0000
C000
0000
BC00
0000
0000
0000
0000
C000
0000
4000
0000
C000
4000
0000
0000
0000
C000
0000
BE00
0000
0000
3E00
0000
3C00
0000
0000
0000
0000
0000
0000
0000
3C00
4400
0000
0000
BC00
0000
0000
0000
3800
BC00
0000
0000
0000
3C00
0000
BE00
0000
0000
0000
0000
0000
0000
0000
0000
0000
0000
0000
0000
0000
0000
BC00
B800
0000
0000
0000
3800
0000
4000
0000
0000
0000
0000
0000
0000
0000
0000
0000
0000
0000
4400
0000
0000
0000
3C00
3C00
0000
0000
0000
0000
0000
0000
0000
0000
0000
0000
0000
0000
0000
3800
0000
0000
3800
0000
0000
0000
0000
0000
0000
0000
0000
0000
0000
0000
0000
0000
0000
C200
0000
C400
C400
0000
0000
0000
0000
0000
0000
0000
0000
0000
BE00
0000
0000
0000
0000
0000
0000
0000
0000
0000
4200
0000
3800
0000
0000
3800
0000
0000
0000
0000
0000
0000
0000
0000
0000
3C00
0000
0000
4000
BC00
0000
0000
3800
0000
4000
0000
3C00
0000
0000
BE00
0000
0000
3800
0000
0000
0000
BC00
3800
BC00
0000
0000
0000
4200
0000
0000
0000
0000
0000
3800
0000
0000
0000
0000
0000
0000
0000
0000
0000
0000
0000
BC00
0000
C400
0000
0000
0000
0000
0000
0000
0000
0000
0000
4000
0000
0000
4000
0000
0000
0000
0000
0000
0000
C000
0000
0000
0000
0000
C000
0000
0000
0000
4200
0000
0000
0000
0000
0000
0000
0000
4000
0000
0000
4000
0000
0000
0000
0000
C200
BC00
0000
0000
0000
0000
BC00
0000
4200
3C00
0000
C000
0000
0000
0000
0000
0000
0000
0000
C200
0000
0000
0000
0000
B800
B800
0000
0000
0000
0000
0000
0000
0000
0000
0000
0000
0000
0000
0000
0000
0000
0000
3800
0000
4200
0000
0000
0000
0000
0000
BC00
0000
0000
0000
C200
C000
0000
C000
0000
0000
0000
0000
C000
0000
0000
BE00
4200
0000
0000
0000
BC00
0000
0000
0000
0000
0000
0000
B800
0000
0000
0000
0000
0000
C200
0000
0000
0000
0000
0000
0000
0000
0000
B800
BE00
0000
4000
0000
0000
0000
3C00
0000
3C00
0000
0000
0000
B800
0000
0000
0000
0000
0000
0000
0000
4400
0000
0000
0000
0000
0000
0000
0000
0000
BE00
0000
3E00
0000
0000
BE00
0000
0000
0000
0000
0000
0000
4000
0000
0000
0000
0000
0000
0000
B800
0000
0000
0000
0000
0000
0000
0000
0000
0000
0000
0000
0000
0000
0000
0000
0000
0000
0000
C400
3E00
0000
3E00
3C00
0000
0000
0000
0000
0000
0000
0000
0000
0000
0000
C200
BE00
0000
0000
0000
0000
4200
0000
0000
0000
C000
0000
0000
0000
0000
4000
0000
0000
4200
0000
0000
C000
0000
0000
0000
BE00
0000
0000
0000
0000
BE00
3E00
0000
B800
0000
0000
0000
0000
0000
BC00
0000
0000
0000
0000
0000
C000
0000
C200
0000
0000
0000
0000
B800
0000
0000
0000
0000
C200
0000
C200
0000
0000
0000
0000
0000
0000
0000
0000
0000
0000
0000
0000
BE00
0000
0000
4000
0000
BE00
0000
0000
0000
BC00
0000
0000
0000
0000
4400
0000
0000
C400
0000
0000
0000
4200
0000
0000
0000
0000
C200
0000
0000
0000
0000
0000
0000
0000
0000
0000
0000
0000
0000
B800
0000
3C00
0000
0000
0000
0000
0000
3C00
0000
C200
0000
4000
0000
C200
0000
3C00
0000
0000
BE00
3E00
0000
0000
0000
0000
0000
C400
0000
4400
3800
0000
4200
0000
0000
3800
0000
4200
0000
0000
0000
0000
C000
0000
BE00
0000
3C00
0000
0000
B800
0000
0000
0000
3800
0000
C400
0000
C000
0000
BC00
0000
0000
0000
3C00
0000
BC00
0000
0000
0000
0000
B800
0000
0000
0000
0000
0000
0000
0000
0000
0000
4000
0000
0000
0000
0000
0000
C200
0000
0000
0000
0000
0000
0000
0000
0000
0000
0000
0000
0000
0000
0000
0000
0000
0000
0000
0000
0000
0000
0000
0000
0000
0000
0000
0000
0000
0000
0000
0000
0000
0000
3C00
0000
4000
0000
0000
3E00
0000
BC00
3C00
0000
0000
0000
0000
0000
0000
0000
0000
0000
3C00
BE00
3C00
0000
0000
0000
0000
0000
0000
0000
0000
3E00
3800
0000
4000
0000
4000
0000
0000
3800
0000
4200
0000
BC00
0000
0000
0000
0000
0000
0000
0000
4000
0000
0000
0000
0000
0000
0000
0000
0000
0000
0000
0000
0000
0000
0000
0000
0000
0000
0000
0000
4200
3E00
4000
0000
3800
0000
0000
0000
0000
0000
3C00
3800
0000
0000
0000
0000
0000
0000
0000
0000
0000
0000
0000
0000
0000
0000
0000
0000
BE00
0000
3800
0000
0000
0000
0000
0000
0000
0000
0000
0000
0000
4400
0000
0000
0000
0000
0000
0000
0000
0000
C000
0000
0000
0000
3800
0000
4400
3E00
0000
4400
0000
0000
C400
0000
C400
0000
0000
0000
B800
0000
BC00
0000
0000
0000
C000
BE00
3800
0000
BC00
4400
3C00
0000
0000
0000
0000
0000
0000
C000
BC00
0000
0000
3E00
C400
0000
0000
0000
0000
0000
0000
0000
0000
B800
0000
0000
3800
0000
0000
0000
0000
0000
3C00
0000
C200
0000
0000
C000
0000
0000
0000
0000
0000
0000
0000
0000
C200
0000
0000
0000
0000
0000
0000
0000
0000
0000
0000
0000
4000
0000
0000
0000
C000
3C00
0000
0000
0000
0000
3E00
0000
0000
0000
0000
0000
B800
0000
0000
0000
4000
3C00
0000
0000
0000
0000
0000
0000
C400
3800
0000
0000
4000
3800
B800
4200
0000
4200
3C00
0000
0000
0000
4400
0000
0000
0000
0000
0000
0000
0000
3E00
0000
0000
0000
0000
0000
3E00
0000
BE00
C200
0000
0000
0000
B800
0000
0000
0000
0000
0000
4400
0000
0000
0000
0000
0000
0000
0000
0000
0000
0000
0000
0000
0000
0000
0000
0000
0000
0000
3C00
0000
4200
0000
0000
0000
BC00
0000
0000
0000
0000
0000
0000
3C00
0000
3800
0000
0000
0000
0000
0000
C200
0000
0000
0000
0000
0000
B800
0000
0000
0000
0000
0000
0000
B800
0000
0000
0000
0000
C400
C400
3C00
0000
0000
0000
3E00
0000
0000
4000
0000
0000
0000
0000
0000
0000
0000
C000
0000
0000
0000
C400
0000
4400
C200
0000
0000
0000
C400
0000
3800
0000
0000
0000
0000
0000
0000
3E00
0000
0000
BC00
0000
C200
0000
0000
0000
C200
0000
0000
0000
0000
0000
0000
0000
3C00
0000
0000
0000
0000
0000
0000
3C00
0000
0000
0000
C000
0000
0000
0000
0000
0000
4000
C200
0000
0000
0000
0000
0000
0000
0000
3C00
0000
0000
0000
3800
0000
0000
0000
C000
3E00
0000
4400
0000
3E00
0000
0000
0000
4000
0000
0000
0000
0000
0000
0000
0000
0000
0000
3800
0000
0000
0000
0000
C000
0000
0000
0000
0000
0000
0000
0000
0000
0000
C200
4200
3C00
0000
0000
0000
C400
3800
0000
0000
BC00
C000
0000
0000
C400
0000
C000
3C00
0000
0000
0000
0000
0000
0000
0000
4400
0000
0000
0000
0000
0000
0000
0000
0000
0000
0000
3800
C000
C200
4400
0000
3E00
0000
4000
0000
BC00
0000
0000
0000
0000
0000
0000
C200
0000
0000
0000
0000
0000
0000
0000
0000
0000
0000
3C00
0000
C000
0000
0000
C400
BE00
0000
0000
0000
0000
BC00
4400
BE00
0000
0000
0000
0000
0000
C200
C200
0000
4000
B800
0000
B800
4000
0000
0000
0000
0000
4200
0000
0000
4200
4200
B800
0000
0000
0000
0000
0000
0000
0000
C000
0000
0000
0000
0000
0000
3C00
0000
3800
0000
0000
0000
0000
0000
0000
0000
0000
0000
C400
0000
C200
0000
0000
0000
0000
BC00
4400
4000
0000
4200
0000
0000
0000
0000
0000
0000
0000
0000
0000
0000
0000
0000
0000
0000
0000
0000
0000
0000
B800
0000
0000
0000
0000
0000
0000
0000
0000
0000
0000
0000
0000
C200
0000
0000
0000
BE00
0000
0000
0000
0000
0000
0000
0000
0000
0000
0000
0000
0000
0000
0000
BE00
0000
0000
0000
0000
0000
0000
0000
0000
4400
0000
0000
BE00
0000
0000
0000
0000
4200
C200
C200
0000
0000
3800
0000
0000
0000
3E00
C000
3C00
0000
C400
0000
BC00
0000
0000
0000
0000
0000
0000
BE00
0000
BE00
C400
0000
0000
0000
C000
0000
0000
0000
0000
0000
4000
3800
4400
0000
0000
0000
0000
0000
0000
0000
0000
0000
0000
0000
0000
0000
3C00
0000
0000
0000
0000
0000
0000
0000
0000
3C00
0000
0000
4200
0000
4000
0000
0000
0000
4000
0000
4000
0000
0000
0000
0000
0000
4400
0000
0000
BE00
3E00
0000
0000
0000
3C00
0000
0000
0000
0000
BE00
0000
0000
0000
0000
0000
0000
0000
3800
0000
0000
0000
0000
0000
0000
BE00
0000
0000
0000
0000
C400
0000
0000
0000
0000
0000
3C00
0000
0000
BE00
0000
0000
0000
3C00
0000
0000
B800
C200
3800
0000
BC00
3C00
4200
C200
0000
0000
0000
C000
0000
0000
0000
0000
0000
0000
0000
0000
0000
0000
0000
0000
0000
0000
B800
0000
3800
3800
0000
0000
BC00
0000
0000
0000
0000
0000
0000
0000
0000
0000
0000
BC00
0000
0000
0000
0000
0000
0000
0000
0000
0000
0000
0000
C000
0000
C400
0000
0000
0000
0000
3C00
0000
0000
BC00
B800
0000
3E00
4400
C000
3C00
0000
0000
0000
C200
0000
0000
0000
0000
B800
0000
0000
0000
0000
3E00
0000
0000
4000
3800
0000
0000
0000
4000
0000
4000
B800
BE00
0000
BE00
3800
0000
B800
3800
0000
0000
0000
C400
0000
0000
0000
0000
0000
0000
0000
B800
B800
C000
0000
0000
0000
0000
0000
0000
0000
0000
0000
0000
0000
C000
0000
0000
0000
C400
BE00
0000
0000
0000
0000
0000
0000
3C00
0000
0000
0000
BE00
0000
0000
0000
0000
0000
0000
0000
0000
0000
0000
0000
0000
0000
0000
0000
0000
0000
0000
3E00
0000
0000
0000
0000
0000
3E00
0000
0000
0000
4000
0000
0000
0000
0000
C400
4000
0000
0000
B800
0000
0000
0000
0000
BC00
0000
C400
0000
0000
3E00
0000
0000
0000
0000
0000
0000
0000
0000
0000
0000
0000
0000
0000
0000
BE00
0000
0000
4000
0000
0000
0000
0000
0000
0000
4200
0000
0000
C200
0000
0000
0000
0000
0000
0000
4000
0000
0000
0000
C000
0000
0000
0000
4400
0000
0000
0000
0000
0000
0000
0000
0000
0000
0000
4000
4200
0000
0000
0000
0000
4200
C400
0000
3E00
0000
0000
0000
0000
0000
0000
0000
0000
0000
0000
0000
0000
0000
0000
0000
C000
0000
4400
3E00
0000
0000
0000
0000
4200
BE00
0000
0000
0000
C000
0000
0000
0000
0000
C000
0000
0000
0000
0000
C200
0000
0000
0000
0000
0000
0000
0000
0000
0000
0000
0000
0000
0000
0000
B800
0000
0000
0000
4200
0000
0000
0000
4400
0000
3E00
0000
0000
0000
0000
3800
0000
0000
0000
0000
0000
0000
0000
0000
0000
0000
0000
0000
0000
0000
0000
0000
0000
0000
3E00
0000
0000
C000
0000
0000
0000
0000
0000
0000
C400
0000
0000
4000
0000
0000
0000
0000
0000
0000
0000
0000
0000
BE00
0000
0000
C400
C200
0000
3E00
0000
0000
0000
4200
0000
0000
0000
0000
0000
3E00
0000
0000
0000
0000
0000
0000
4400
0000
0000
0000
0000
0000
0000
0000
0000
0000
0000
0000
BE00
0000
0000
C400
0000
0000
3C00
0000
0000
0000
C000
0000
0000
0000
0000
0000
0000
3C00
0000
0000
0000
0000
0000
0000
0000
C400
0000
BE00
3800
4200
BE00
0000
B800
0000
C200
0000
0000
0000
0000
0000
0000
0000
0000
0000
0000
0000
0000
BE00
0000
0000
0000
C400
0000
0000
BC00
3E00
C200
0000
0000
0000
0000
0000
4200
0000
BE00
4200
0000
0000
0000
4000
4000
0000
0000
3E00
4200
4000
0000
0000
4000
3C00
0000
0000
0000
0000
0000
0000
0000
0000
0000
0000
0000
0000
0000
0000
3E00
0000
0000
0000
0000
4200
C200
0000
C400
0000
3E00
0000
0000
C000
0000
0000
C200
B800
0000
3C00
0000
0000
0000
0000
BC00
C200
BC00
0000
0000
0000
0000
0000
BC00
0000
0000
0000
0000
0000
BC00
0000
4000
0000
0000
0000
3C00
C200
0000
C200
4000
0000
0000
0000
0000
0000
0000
0000
0000
0000
0000
0000
4000
0000
0000
0000
0000
0000
0000
0000
4200
0000
0000
4200
0000
0000
0000
C200
0000
0000
0000
BE00
0000
0000
0000
0000
0000
0000
0000
0000
0000
4000
0000
0000
0000
BC00
3E00
0000
0000
0000
0000
0000
B800
B800
0000
BE00
0000
0000
0000
0000
3800
0000
0000
0000
0000
3E00
0000
0000
0000
0000
0000
4200
0000
4400
C400
0000
0000
0000
BC00
0000
0000
0000
0000
4000
3E00
0000
0000
0000
0000
0000
0000
4200
0000
0000
0000
0000
0000
0000
3800
0000
0000
4200
B800
C400
BC00
4400
0000
C400
C000
0000
0000
4000
0000
0000
0000
0000
0000
0000
0000
0000
3E00
0000
C200
0000
0000
0000
0000
0000
0000
C400
0000
C000
4400
0000
0000
0000
0000
0000
0000
BE00
BC00
0000
0000
0000
0000
0000
0000
0000
4400
0000
0000
0000
0000
0000
3C00
0000
0000
0000
0000
0000
0000
0000
0000
0000
0000
0000
0000
0000
0000
0000
0000
0000
BC00
BC00
0000
C200
0000
0000
C000
0000
0000
3C00
0000
3800
BC00
0000
0000
0000
0000
0000
0000
0000
3800
0000
0000
0000
3800
0000
0000
C200
0000
C000
0000
0000
0000
0000
0000
0000
0000
3800
0000
0000
0000
0000
0000
0000
0000
0000
BC00
0000
0000
0000
0000
4400
0000
0000
0000
0000
0000
0000
0000
0000
0000
0000
C400
0000
4200
0000
0000
0000
0000
3800
0000
0000
0000
0000
0000
0000
0000
0000
0000
0000
0000
0000
0000
0000
3800
0000
4200
3E00
0000
0000
0000
B800
0000
BC00
0000
0000
C400
0000
0000
C000
4400
0000
0000
0000
0000
C200
0000
C200
0000
0000
0000
0000
0000
0000
0000
0000
0000
4200
0000
0000
0000
B800
0000
0000
0000
0000
4400
0000
0000
0000
0000
3800
3800
BC00
BC00
0000
0000
4200
0000
0000
0000
0000
C400
4000
0000
4200
0000
0000
0000
0000
0000
4400
4200
0000
0000
0000
0000
4000
0000
BC00
C200
0000
0000
0000
0000
0000
0000
0000
4400
B800
0000
0000
0000
0000
4000
0000
0000
0000
0000
0000
4200
BC00
0000
0000
0000
0000
0000
0000
0000
0000
BC00
0000
0000
0000
C000
0000
0000
0000
4400
0000
4000
0000
0000
0000
B800
0000
0000
0000
0000
0000
C400
0000
0000
C200
4400
0000
0000
0000
0000
0000
0000
0000
BE00
C400
0000
0000
0000
0000
0000
0000
0000
0000
0000
0000
0000
0000
0000
0000
0000
0000
0000
0000
3E00
0000
0000
0000
0000
0000
0000
0000
3E00
0000
C000
0000
0000
0000
0000
0000
C000
0000
3800
0000
0000
0000
0000
0000
0000
BC00
0000
0000
0000
0000
0000
4000
4200
C400
0000
0000
0000
0000
0000
0000
0000
0000
0000
BC00
0000
4200
0000
C000
C200
0000
B800
0000
0000
C400
0000
0000
0000
0000
C000
0000
0000
0000
0000
0000
0000
3800
0000
0000
4000
0000
0000
0000
0000
0000
0000
0000
0000
4200
0000
0000
0000
4400
0000
B800
0000
0000
0000
3E00
C400
0000
C200
0000
4000
0000
0000
0000
0000
0000
0000
0000
0000
0000
0000
BC00
0000
4000
0000
B800
0000
0000
BC00
0000
C000
BC00
3800
4000
3800
B800
0000
0000
4000
0000
0000
0000
B800
3E00
0000
0000
0000
0000
0000
0000
0000
0000
0000
0000
0000
0000
0000
0000
0000
0000
0000
0000
0000
0000
0000
3E00
0000
0000
0000
0000
0000
B800
B800
0000
0000
0000
0000
0000
0000
0000
0000
0000
0000
4400
0000
0000
0000
0000
0000
0000
0000
0000
0000
0000
0000
0000
0000
0000
0000
0000
BE00
0000
0000
0000
0000
C400
0000
3800
3C00
0000
0000
0000
0000
4400
0000
0000
0000
C400
0000
0000
C400
0000
4400
C000
0000
0000
0000
4400
0000
0000
BE00
0000
0000
3800
0000
0000
0000
4000
4000
BE00
0000
0000
BC00
3E00
0000
BC00
0000
0000
0000
0000
0000
0000
0000
0000
0000
0000
0000
0000
3800
0000
0000
0000
0000
0000
0000
0000
0000
C000
0000
0000
0000
0000
0000
0000
0000
BC00
0000
0000
0000
0000
4000
0000
0000
0000
0000
0000
0000
0000
0000
0000
0000
0000
0000
0000
0000
0000
C400
0000
4200
0000
3E00
0000
0000
0000
0000
0000
0000
0000
0000
0000
C200
0000
0000
0000
BE00
0000
BE00
0000
0000
4000
0000
0000
BC00
0000
0000
3800
0000
0000
0000
0000
0000
0000
0000
4400
0000
0000
0000
0000
0000
0000
0000
0000
0000
0000
0000
0000
0000
0000
0000
0000
B800
0000
C200
0000
0000
4400
0000
0000
3E00
B800
0000
C000
0000
0000
BE00
0000
0000
0000
0000
C000
0000
0000
C400
0000
0000
0000
0000
0000
3E00
4000
0000
0000
0000
0000
C200
0000
0000
0000
0000
0000
0000
C200
4200
0000
0000
0000
0000
0000
0000
B800
0000
C400
4400
0000
0000
0000
0000
0000
0000
0000
0000
0000
0000
3E00
0000
0000
0000
0000
0000
0000
0000
3800
0000
0000
0000
BE00
0000
3E00
C400
0000
4400
0000
3C00
0000
0000
0000
0000
0000
0000
0000
0000
0000
0000
0000
0000
0000
0000
0000
0000
0000
0000
0000
4200
3800
0000
0000
0000
0000
0000
0000
0000
0000
0000
0000
0000
0000
0000
0000
0000
B800
0000
0000
0000
C000
C200
0000
0000
0000
0000
0000
0000
0000
4000
0000
0000
0000
0000
0000
C200
0000
0000
0000
0000
0000
0000
C000
0000
0000
0000
0000
0000
0000
0000
3C00
C200
0000
3800
BE00
3C00
0000
0000
4200
C200
0000
0000
0000
0000
0000
0000
0000
0000
0000
0000
4200
0000
0000
3C00
0000
0000
0000
0000
0000
0000
3C00
0000
0000
0000
0000
BE00
4000
0000
0000
0000
0000
4000
0000
3800
0000
0000
0000
3C00
0000
0000
0000
0000
0000
0000
0000
0000
0000
3C00
0000
0000
0000
0000
0000
0000
0000
0000
0000
0000
0000
0000
4200
0000
3C00
0000
3E00
0000
BC00
0000
0000
BE00
0000
4200
0000
0000
B800
0000
3800
0000
0000
0000
0000
0000
0000
0000
0000
0000
0000
4200
0000
0000
0000
0000
0000
0000
3C00
0000
0000
0000
0000
C000
BE00
C200
4200
0000
4400
0000
0000
0000
0000
0000
0000
0000
3800
0000
0000
0000
B800
3C00
BE00
0000
0000
0000
0000
0000
0000
0000
0000
0000
0000
0000
0000
3C00
0000
0000
0000
0000
0000
0000
0000
0000
0000
0000
0000
0000
0000
0000
0000
0000
BC00
0000
0000
0000
0000
0000
0000
0000
0000
0000
0000
0000
0000
0000
0000
0000
0000
0000
3E00
0000
0000
0000
0000
0000
0000
0000
0000
0000
4000
0000
0000
0000
BC00
0000
0000
0000
0000
0000
BE00
0000
0000
0000
BE00
0000
0000
0000
0000
0000
0000
0000
0000
BC00
0000
0000
0000
0000
0000
0000
0000
0000
0000
0000
BC00
0000
0000
0000
0000
0000
BE00
0000
0000
0000
0000
4000
0000
0000
0000
0000
0000
0000
0000
0000
4200
3C00
0000
4400
0000
0000
0000
0000
0000
0000
0000
0000
0000
0000
0000
0000
0000
0000
0000
3800
C400
0000
0000
0000
4200
0000
0000
C000
0000
0000
3800
0000
0000
0000
0000
0000
0000
C200
0000
0000
0000
3800
0000
0000
0000
0000
0000
0000
0000
0000
BC00
0000
B800
B800
0000
3C00
0000
0000
0000
4400
0000
0000
0000
3E00
0000
3800
0000
0000
0000
0000
0000
0000
4400
0000
0000
0000
0000
0000
C200
0000
4200
BE00
0000
0000
0000
0000
0000
0000
C000
0000
4200
0000
3E00
0000
0000
0000
4400
0000
0000
0000
4200
0000
0000
0000
0000
0000
0000
0000
0000
0000
4200
C200
0000
0000
0000
0000
0000
0000
B800
3C00
0000
0000
0000
0000
0000
B800
0000
4000
0000
0000
0000
0000
0000
0000
0000
0000
C000
0000
0000
0000
0000
0000
0000
0000
4200
C000
0000
BE00
0000
0000
B800
0000
0000
0000
3C00
0000
4000
0000
0000
0000
3C00
0000
4200
4400
0000
0000
C400
0000
0000
0000
C200
0000
4200
3800
4400
0000
0000
BC00
0000
0000
4000
0000
0000
0000
B800
0000
0000
0000
0000
0000
0000
0000
0000
C400
0000
0000
0000
0000
0000
0000
0000
0000
0000
0000
BC00
0000
0000
0000
0000
0000
0000
4000
3C00
0000
0000
0000
0000
0000
0000
0000
4200
0000
0000
0000
C400
0000
0000
0000
0000
0000
0000
0000
0000
0000
0000
0000
0000
0000
3800
0000
0000
0000
0000
4400
0000
0000
0000
C000
0000
0000
3C00
0000
0000
0000
4200
0000
0000
3E00
0000
0000
0000
0000
0000
0000
C400
0000
0000
BC00
3E00
0000
0000
3C00
0000
0000
0000
0000
0000
3C00
3E00
0000
0000
0000
0000
0000
0000
C000
0000
B800
0000
C200
0000
0000
0000
0000
0000
0000
3800
0000
0000
3E00
0000
4200
0000
0000
3E00
B800
0000
0000
3E00
0000
0000
0000
0000
0000
0000
0000
0000
0000
0000
0000
0000
0000
0000
0000
0000
0000
0000
0000
3C00
0000
0000
0000
BE00
0000
0000
0000
0000
0000
0000
0000
0000
0000
C200
0000
0000
0000
C000
0000
0000
0000
0000
4000
0000
0000
0000
0000
C000
0000
0000
0000
0000
0000
0000
0000
0000
B800
BE00
4400
0000
0000
0000
0000
0000
3C00
0000
0000
0000
0000
0000
0000
0000
0000
3800
0000
0000
C200
0000
4200
3E00
B800
0000
0000
3C00
0000
B800
0000
0000
0000
0000
0000
0000
3800
4000
0000
0000
BC00
0000
0000
B800
0000
0000
0000
0000
0000
0000
0000
0000
0000
0000
0000
0000
0000
0000
0000
0000
0000
0000
4400
B800
0000
0000
0000
3E00
0000
0000
0000
BC00
0000
4200
0000
0000
0000
0000
4200
0000
0000
0000
0000
0000
3E00
0000
B800
0000
0000
0000
BC00
0000
0000
0000
0000
BE00
0000
C000
0000
0000
0000
0000
0000
0000
0000
B800
0000
C400
BC00
0000
0000
0000
0000
0000
0000
0000
0000
0000
0000
0000
0000
BC00
0000
0000
3E00
0000
0000
0000
0000
0000
0000
0000
B800
0000
0000
0000
0000
0000
3C00
0000
0000
0000
0000
0000
3800
0000
0000
4000
0000
4400
0000
0000
0000
0000
0000
0000
C200
0000
3E00
0000
C400
0000
0000
0000
0000
0000
3E00
0000
0000
0000
0000
0000
0000
0000
0000
0000
3E00
3E00
C000
C200
BC00
BE00
0000
0000
B800
0000
0000
0000
0000
0000
0000
0000
0000
0000
4200
0000
0000
0000
0000
0000
0000
0000
0000
0000
0000
0000
0000
0000
0000
0000
0000
0000
C400
0000
0000
4400
0000
0000
0000
0000
0000
0000
C400
0000
4200
BC00
0000
0000
0000
3C00
0000
0000
0000
B800
0000
0000
0000
B800
0000
0000
0000
0000
0000
0000
0000
0000
0000
4000
0000
4000
3800
C000
0000
0000
B800
BC00
3E00
0000
0000
0000
0000
C400
0000
0000
0000
0000
0000
0000
3E00
0000
0000
0000
4400
0000
4000
0000
B800
0000
0000
0000
0000
0000
4400
BC00
0000
0000
3E00
0000
3E00
C200
0000
0000
BC00
C000
4000
C000
0000
0000
0000
0000
0000
0000
0000
0000
BE00
0000
0000
0000
0000
0000
B800
0000
0000
0000
BC00
0000
0000
0000
0000
0000
0000
C400
4200
C200
0000
0000
0000
0000
0000
0000
0000
0000
0000
B800
0000
0000
0000
3800
C000
0000
0000
0000
0000
0000
C400
4200
0000
0000
0000
0000
0000
0000
C400
0000
3800
0000
0000
C400
C000
0000
0000
0000
0000
0000
3800
0000
0000
0000
0000
0000
0000
B800
0000
0000
0000
0000
0000
0000
C400
0000
0000
0000
0000
3800
BC00
3C00
0000
0000
0000
0000
4200
0000
3E00
0000
0000
0000
0000
0000
0000
0000
0000
0000
0000
3C00
0000
0000
BC00
0000
0000
BC00
4000
0000
0000
BC00
0000
0000
0000
0000
0000
0000
0000
BE00
0000
0000
0000
0000
4400
0000
0000
0000
0000
0000
0000
0000
4400
0000
0000
0000
0000
0000
4000
0000
0000
0000
3C00
C000
3E00
0000
0000
0000
0000
0000
0000
0000
0000
0000
0000
0000
4200
0000
0000
0000
0000
0000
3E00
0000
0000
0000
0000
3C00
3E00
4400
C000
0000
0000
0000
4400
0000
0000
0000
0000
C400
C200
0000
4200
4200
0000
0000
0000
0000
0000
0000
0000
0000
0000
0000
4200
0000
0000
0000
0000
0000
0000
3800
0000
4000
C400
0000
0000
BE00
0000
0000
0000
0000
0000
BE00
0000
0000
0000
4000
0000
4000
C000
0000
0000
0000
0000
0000
0000
0000
0000
4400
0000
BE00
0000
0000
0000
BC00
0000
0000
0000
0000
0000
0000
0000
0000
0000
0000
4400
0000
0000
0000
0000
0000
0000
0000
C200
0000
0000
0000
0000
0000
0000
0000
4000
0000
0000
0000
0000
4400
0000
0000
0000
0000
0000
0000
0000
0000
0000
BC00
0000
0000
0000
0000
0000
BE00
3E00
0000
BC00
0000
0000
B800
4200
0000
0000
0000
0000
0000
0000
0000
0000
4200
0000
0000
3E00
0000
0000
4400
3E00
0000
0000
0000
0000
4000
0000
0000
0000
0000
0000
0000
BC00
0000
0000
0000
0000
4000
0000
0000
BC00
0000
0000
0000
0000
0000
3C00
0000
0000
0000
0000
C200
0000
0000
0000
0000
4000
0000
B800
0000
0000
0000
0000
0000
0000
0000
B800
0000
0000
0000
0000
0000
0000
C400
C400
0000
0000
0000
0000
0000
0000
0000
3C00
0000
3C00
0000
4400
0000
0000
0000
3C00
0000
0000
4000
3800
0000
0000
C400
0000
0000
0000
4200
BC00
C400
BE00
B800
0000
0000
0000
3E00
0000
0000
0000
4000
0000
0000
0000
0000
0000
0000
0000
4200
0000
0000
3800
0000
0000
0000
0000
0000
0000
0000
0000
0000
0000
0000
0000
3800
0000
BE00
0000
0000
C400
BE00
0000
3800
0000
3E00
C400
0000
0000
3E00
3800
0000
0000
0000
BE00
BE00
0000
0000
3E00
3C00
0000
0000
0000
0000
0000
0000
0000
4400
0000
0000
BC00
0000
0000
0000
0000
0000
C000
0000
0000
0000
0000
0000
0000
0000
0000
0000
0000
4200
0000
0000
0000
0000
0000
0000
C200
0000
0000
0000
0000
0000
0000
0000
0000
0000
0000
0000
0000
0000
0000
0000
0000
0000
0000
BE00
BC00
0000
0000
4400
0000
3E00
0000
BE00
0000
0000
C400
0000
0000
0000
0000
0000
0000
0000
0000
0000
0000
B800
0000
3E00
0000
0000
0000
3800
0000
0000
0000
3800
0000
0000
0000
C000
0000
B800
0000
0000
0000
0000
0000
0000
0000
3E00
BE00
0000
0000
0000
0000
0000
0000
0000
0000
C400
0000
0000
BE00
3E00
0000
0000
0000
0000
3E00
0000
BE00
BE00
0000
0000
0000
BC00
0000
0000
0000
0000
B800
BE00
0000
0000
0000
B800
0000
C200
BE00
0000
0000
4400
0000
0000
0000
0000
3800
C400
0000
3800
0000
0000
3E00
0000
0000
BC00
C000
0000
C200
0000
4200
0000
0000
0000
4000
0000
C200
0000
0000
C000
BE00
0000
0000
0000
0000
0000
0000
0000
0000
0000
3E00
0000
0000
0000
0000
0000
0000
0000
4000
4400
3E00
0000
BE00
0000
0000
0000
C000
B800
C200
4000
0000
0000
3800
BE00
0000
0000
0000
0000
0000
0000
0000
0000
0000
0000
4000
0000
0000
BE00
0000
C400
0000
0000
0000
0000
C400
0000
0000
0000
0000
4000
C200
BE00
0000
0000
0000
3C00
0000
0000
0000
0000
0000
3E00
0000
0000
0000
0000
0000
0000
0000
0000
0000
0000
4000
0000
0000
0000
0000
0000
0000
0000
0000
0000
0000
0000
0000
0000
0000
0000
0000
0000
3E00
0000
0000
0000
0000
0000
0000
0000
0000
3E00
B800
0000
0000
0000
0000
B800
C000
0000
0000
0000
0000
3E00
0000
0000
0000
0000
C200
0000
0000
0000
C000
0000
0000
0000
0000
0000
0000
0000
0000
0000
BE00
B800
0000
0000
0000
0000
0000
0000
0000
0000
0000
0000
3800
0000
0000
0000
0000
0000
0000
0000
0000
0000
0000
0000
0000
0000
0000
0000
0000
0000
0000
0000
0000
0000
0000
0000
0000
0000
0000
0000
0000
C200
0000
BE00
4000
4000
0000
4400
0000
0000
4400
0000
0000
C400
C400
3E00
0000
C000
0000
3E00
BC00
0000
0000
0000
0000
0000
4400
0000
0000
0000
0000
0000
0000
0000
0000
0000
0000
0000
0000
0000
0000
0000
0000
0000
0000
C400
0000
3800
0000
0000
0000
0000
0000
B800
0000
0000
0000
0000
C400
0000
0000
0000
0000
0000
0000
0000
0000
0000
0000
0000
0000
0000
0000
0000
0000
4400
C400
0000
0000
B800
0000
0000
3E00
0000
0000
C200
3C00
0000
0000
0000
0000
B800
0000
0000
4200
0000
0000
0000
0000
0000
0000
0000
0000
0000
0000
0000
0000
0000
0000
0000
0000
3800
0000
0000
0000
0000
0000
0000
0000
0000
0000
0000
0000
0000
0000
0000
4000
0000
3C00
0000
0000
3800
0000
0000
0000
0000
0000
0000
0000
0000
0000
C400
0000
C200
0000
0000
C200
0000
4400
0000
0000
0000
0000
0000
0000
0000
C400
0000
0000
0000
3800
0000
0000
0000
C000
0000
0000
0000
0000
0000
0000
0000
0000
BC00
C400
0000
0000
0000
0000
0000
0000
3E00
0000
0000
0000
0000
0000
0000
0000
0000
0000
0000
0000
0000
0000
0000
0000
0000
0000
0000
0000
0000
0000
0000
0000
0000
0000
0000
4200
0000
0000
4000
0000
3800
0000
0000
0000
0000
0000
0000
0000
3C00
0000
C200
B800
C200
0000
0000
0000
0000
0000
0000
0000
3C00
0000
0000
0000
0000
0000
0000
BC00
4000
0000
0000
0000
0000
0000
0000
0000
0000
0000
0000
0000
0000
C400
0000
0000
0000
BC00
0000
0000
3C00
0000
0000
0000
0000
0000
0000
0000
0000
0000
0000
0000
4000
0000
0000
3C00
0000
0000
C000
0000
C200
0000
C200
0000
0000
0000
0000
0000
BE00
0000
4000
0000
0000
0000
0000
0000
0000
BC00
0000
0000
3C00
0000
0000
0000
0000
0000
0000
0000
0000
0000
3C00
3C00
0000
0000
0000
BE00
BE00
0000
0000
0000
0000
0000
0000
0000
0000
3E00
0000
0000
0000
0000
0000
0000
0000
0000
0000
3800
0000
0000
C000
0000
3E00
0000
0000
0000
0000
0000
0000
0000
0000
0000
0000
0000
0000
3800
0000
0000
0000
0000
0000
0000
C000
0000
0000
0000
B800
3800
0000
0000
0000
0000
0000
0000
4000
0000
0000
0000
0000
4400
0000
0000
0000
0000
0000
0000
4000
0000
C000
3E00
3E00
B800
0000
0000
0000
0000
0000
0000
0000
0000
0000
0000
0000
0000
0000
C200
4200
0000
0000
0000
3C00
0000
0000
4200
0000
0000
3E00
0000
B800
0000
3E00
0000
0000
0000
0000
0000
3C00
C200
0000
0000
0000
0000
0000
BE00
BC00
0000
0000
0000
0000
BC00
0000
0000
0000
0000
0000
0000
0000
0000
0000
4400
0000
0000
0000
3E00
0000
0000
4200
0000
0000
0000
0000
0000
0000
0000
4400
4000
0000
0000
0000
0000
0000
0000
0000
0000
0000
0000
0000
0000
0000
0000
0000
0000
0000
0000
0000
0000
0000
0000
B800
0000
0000
0000
0000
0000
3800
0000
4000
0000
0000
0000
0000
0000
0000
C000
0000
0000
0000
0000
0000
0000
C000
0000
0000
0000
0000
0000
0000
0000
4200
0000
0000
0000
0000
0000
0000
4000
0000
0000
0000
4200
4200
3800
0000
0000
0000
0000
0000
C000
0000
0000
0000
0000
0000
3800
BC00
0000
0000
C200
C400
C400
0000
0000
0000
0000
0000
0000
0000
4000
0000
0000
0000
0000
3C00
0000
4400
0000
4400
0000
0000
0000
0000
0000
0000
0000
0000
0000
0000
BC00
0000
4000
0000
0000
3C00
0000
0000
0000
B800
BE00
0000
0000
0000
0000
0000
0000
4400
C000
4400
0000
0000
0000
0000
3800
0000
B800
C400
0000
BE00
BC00
0000
0000
0000
0000
0000
3C00
0000
BC00
0000
0000
3C00
0000
3C00
0000
0000
3C00
B800
0000
0000
0000
0000
0000
0000
0000
0000
0000
0000
0000
0000
0000
3800
4000
0000
0000
0000
0000
0000
0000
0000
0000
0000
3C00
0000
0000
0000
0000
BE00
0000
0000
0000
0000
0000
0000
0000
0000
0000
0000
0000
0000
0000
0000
0000
C200
0000
0000
0000
BC00
3C00
C000
0000
0000
0000
0000
3E00
0000
0000
0000
BE00
0000
BC00
0000
0000
0000
0000
3C00
0000
0000
0000
0000
0000
4400
0000
3C00
0000
0000
0000
B800
0000
0000
0000
0000
0000
4000
0000
0000
0000
0000
0000
0000
0000
0000
0000
4400
0000
C400
0000
0000
4400
0000
0000
0000
0000
0000
0000
4000
B800
0000
0000
C000
0000
0000
0000
B800
0000
0000
0000
0000
0000
0000
0000
0000
0000
0000
0000
0000
BC00
0000
0000
C400
0000
0000
0000
0000
0000
0000
0000
0000
0000
4000
3800
BC00
0000
0000
0000
0000
C400
0000
BC00
0000
0000
0000
4000
0000
0000
4000
3E00
0000
0000
0000
0000
0000
0000
C000
BE00
0000
C000
0000
0000
0000
0000
0000
0000
0000
0000
C200
0000
C400
0000
0000
0000
0000
0000
0000
0000
0000
0000
0000
0000
0000
0000
C000
0000
0000
0000
0000
3E00
0000
0000
4400
0000
0000
0000
C000
0000
0000
0000
0000
0000
0000
0000
0000
0000
0000
3E00
0000
0000
0000
0000
C000
0000
4000
3800
0000
0000
0000
3800
4000
4200
0000
0000
0000
0000
0000
C200
0000
0000
BC00
0000
0000
0000
0000
3800
4400
0000
0000
0000
3C00
0000
0000
0000
0000
0000
0000
0000
0000
0000
0000
0000
0000
0000
0000
3E00
0000
0000
3E00
3E00
0000
0000
0000
4000
0000
3800
C000
0000
0000
0000
0000
B800
0000
0000
0000
0000
0000
0000
BE00
3C00
0000
0000
0000
0000
C200
0000
0000
0000
0000
0000
4200
0000
0000
0000
0000
0000
0000
0000
0000
C000
0000
0000
0000
0000
0000
0000
0000
0000
4000
0000
BE00
0000
0000
0000
0000
0000
BC00
B800
0000
0000
0000
4400
0000
C200
0000
0000
BC00
0000
0000
0000
3E00
0000
0000
0000
B800
0000
C000
0000
0000
0000
0000
B800
0000
0000
4400
0000
4400
0000
0000
0000
0000
0000
0000
3800
4000
0000
0000
4200
0000
0000
0000
3C00
0000
0000
0000
0000
BE00
0000
0000
3C00
0000
0000
0000
0000
0000
0000
0000
3C00
0000
0000
0000
4400
0000
0000
BE00
4000
0000
0000
0000
0000
0000
0000
0000
0000
4400
3800
0000
0000
0000
0000
0000
0000
BE00
0000
0000
0000
0000
BC00
0000
0000
4400
0000
0000
0000
C200
0000
0000
0000
0000
0000
0000
0000
0000
0000
C000
BE00
0000
0000
0000
0000
0000
0000
0000
0000
0000
0000
0000
3E00
0000
C000
0000
0000
3E00
0000
3E00
0000
0000
0000
0000
C400
4000
BE00
3800
0000
0000
0000
0000
0000
0000
0000
0000
3C00
0000
0000
0000
0000
3C00
0000
0000
0000
0000
0000
0000
0000
0000
0000
0000
0000
4200
0000
3800
0000
0000
0000
0000
0000
0000
0000
0000
0000
0000
4000
0000
4400
0000
BE00
0000
0000
0000
3C00
0000
BC00
3800
0000
0000
0000
4200
0000
3C00
0000
0000
0000
0000
0000
0000
0000
0000
0000
0000
0000
0000
B800
0000
C400
0000
0000
0000
C400
0000
0000
BE00
0000
0000
0000
BE00
0000
0000
BC00
0000
0000
B800
0000
0000
B800
4400
0000
0000
BE00
0000
0000
0000
0000
0000
0000
0000
BC00
0000
0000
0000
0000
0000
0000
0000
0000
0000
0000
0000
0000
0000
0000
0000
0000
0000
0000
0000
0000
0000
0000
0000
0000
0000
BE00
0000
0000
0000
0000
0000
0000
0000
0000
0000
0000
0000
0000
B800
0000
3800
0000
0000
0000
0000
0000
0000
0000
0000
0000
0000
0000
0000
0000
0000
0000
0000
BC00
C200
0000
3800
0000
0000
0000
0000
0000
0000
0000
0000
0000
0000
BC00
4400
0000
0000
4400
0000
0000
4000
0000
3C00
3C00
0000
0000
BE00
0000
0000
0000
3E00
0000
0000
0000
0000
0000
0000
0000
0000
0000
0000
3E00
0000
0000
0000
0000
0000
0000
BC00
0000
0000
0000
0000
0000
0000
0000
0000
4400
0000
0000
0000
0000
BC00
0000
0000
0000
3800
0000
0000
0000
0000
0000
0000
3E00
0000
0000
0000
0000
0000
B800
0000
0000
0000
0000
0000
0000
0000
0000
0000
3C00
0000
0000
0000
0000
0000
0000
0000
0000
0000
3800
C400
0000
0000
0000
0000
C200
0000
0000
0000
0000
3C00
0000
0000
3E00
C400
0000
0000
0000
0000
B800
C400
0000
0000
BC00
0000
0000
0000
4000
0000
0000
0000
0000
0000
0000
0000
4000
4400
0000
0000
0000
0000
0000
3E00
BC00
0000
0000
0000
BC00
0000
0000
0000
0000
C000
0000
0000
0000
0000
0000
3800
4200
0000
0000
0000
0000
0000
0000
0000
0000
0000
C400
0000
0000
0000
4200
0000
3E00
0000
0000
0000
0000
0000
BE00
0000
0000
0000
0000
0000
0000
0000
C200
0000
3E00
0000
0000
0000
0000
3800
4400
4200
0000
0000
0000
0000
0000
0000
0000
0000
0000
0000
0000
0000
0000
C200
4400
0000
C000
0000
0000
0000
C400
C400
0000
0000
0000
0000
BC00
0000
4000
4000
0000
0000
B800
0000
3C00
0000
0000
0000
0000
0000
0000
0000
0000
C000
0000
0000
0000
0000
0000
0000
0000
0000
0000
0000
0000
B800
0000
3800
0000
0000
3800
0000
0000
0000
0000
4400
0000
0000
0000
0000
0000
0000
0000
0000
4200
3800
0000
0000
0000
0000
C200
0000
0000
0000
0000
0000
0000
0000
B800
0000
0000
0000
0000
0000
C400
BC00
0000
0000
0000
0000
0000
4200
0000
BE00
0000
0000
0000
C400
0000
0000
0000
0000
0000
4200
0000
4000
0000
0000
B800
4200
0000
0000
0000
0000
0000
4200
0000
0000
C000
0000
3C00
0000
0000
0000
0000
0000
0000
0000
0000
0000
0000
0000
0000
BE00
0000
C400
0000
BE00
0000
4400
0000
4000
0000
0000
0000
4000
0000
0000
C400
0000
4200
0000
0000
BC00
0000
0000
0000
3C00
3800
0000
C200
0000
C400
0000
3800
0000
0000
0000
0000
0000
0000
0000
0000
0000
0000
0000
0000
0000
BE00
0000
4000
0000
0000
0000
0000
0000
3800
0000
0000
0000
C400
0000
0000
0000
0000
B800
0000
0000
0000
BE00
0000
0000
0000
0000
0000
0000
C200
0000
0000
0000
0000
0000
0000
0000
0000
B800
0000
0000
0000
0000
0000
0000
0000
0000
0000
4400
0000
0000
BE00
0000
0000
0000
0000
0000
0000
0000
BE00
C000
0000
0000
0000
0000
0000
0000
0000
0000
0000
C200
C400
0000
0000
0000
0000
0000
0000
0000
0000
0000
3C00
C000
0000
0000
0000
0000
0000
BE00
0000
3C00
0000
0000
0000
0000
0000
0000
0000
0000
0000
0000
0000
0000
B800
0000
0000
0000
0000
C400
0000
0000
0000
0000
0000
0000
3E00
0000
4000
0000
0000
0000
0000
0000
0000
0000
0000
0000
0000
0000
0000
0000
4000
0000
0000
0000
0000
0000
0000
0000
0000
0000
0000
0000
0000
0000
0000
0000
0000
0000
0000
0000
0000
0000
0000
0000
0000
0000
0000
0000
0000
0000
0000
0000
0000
0000
0000
0000
0000
0000
4400
4400
0000
BE00
0000
0000
0000
B800
0000
0000
0000
0000
0000
4200
4400
C200
0000
0000
0000
0000
0000
0000
0000
0000
0000
0000
0000
0000
B800
0000
4000
0000
3E00
0000
0000
0000
3E00
0000
0000
0000
BC00
0000
0000
0000
0000
0000
0000
0000
3E00
4400
0000
C000
0000
0000
0000
0000
0000
0000
0000
0000
0000
0000
0000
0000
0000
0000
0000
0000
0000
0000
0000
0000
0000
C000
0000
0000
0000
0000
4000
0000
4000
0000
0000
0000
0000
4000
0000
0000
0000
0000
0000
BE00
0000
4200
0000
0000
0000
0000
0000
0000
0000
0000
0000
B800
0000
0000
0000
C400
C200
BC00
BC00
0000
0000
0000
0000
0000
0000
0000
0000
0000
0000
3800
0000
4400
3800
0000
0000
0000
3800
0000
0000
4000
0000
0000
0000
0000
0000
0000
0000
0000
0000
0000
0000
0000
0000
0000
0000
0000
0000
BC00
0000
C200
4200
C200
B800
C000
0000
0000
3800
0000
0000
0000
0000
0000
0000
0000
BC00
0000
0000
0000
BE00
0000
0000
4200
0000
0000
0000
0000
0000
0000
0000
0000
0000
3E00
0000
0000
0000
0000
0000
0000
0000
0000
0000
0000
B800
0000
4200
0000
0000
0000
4400
0000
4400
0000
BE00
0000
0000
0000
0000
0000
0000
0000
0000
0000
0000
0000
0000
0000
0000
0000
0000
BE00
0000
0000
0000
0000
0000
0000
0000
0000
0000
0000
0000
0000
0000
0000
C400
0000
0000
0000
3C00
0000
0000
0000
0000
0000
0000
BC00
0000
0000
0000
0000
0000
0000
0000
0000
0000
B800
0000
0000
0000
0000
0000
0000
0000
0000
0000
4000
0000
4200
4200
0000
4400
0000
0000
0000
0000
C000
0000
0000
0000
0000
0000
3C00
0000
0000
C200
0000
0000
0000
0000
0000
0000
0000
0000
0000
0000
0000
0000
0000
0000
C400
C000
0000
0000
0000
0000
4400
0000
0000
0000
0000
C000
0000
0000
4000
0000
0000
0000
0000
4200
0000
0000
0000
0000
0000
0000
0000
0000
0000
0000
0000
0000
0000
0000
0000
0000
0000
3800
0000
0000
0000
0000
0000
0000
3C00
0000
3C00
0000
0000
3C00
0000
C200
0000
4000
0000
0000
0000
0000
3C00
0000
0000
BC00
0000
0000
BC00
BC00
C200
0000
0000
0000
4400
0000
0000
0000
0000
0000
0000
BC00
0000
0000
0000
0000
0000
0000
0000
3C00
C400
0000
4000
0000
3E00
0000
0000
0000
0000
0000
0000
0000
0000
0000
0000
0000
0000
0000
0000
0000
0000
0000
0000
0000
0000
C000
0000
0000
0000
0000
0000
0000
0000
0000
3E00
3800
0000
C000
0000
0000
C000
0000
0000
0000
0000
0000
0000
0000
4400
0000
C200
0000
0000
0000
C200
0000
0000
BE00
0000
0000
C200
0000
3E00
0000
0000
0000
0000
0000
0000
0000
0000
4000
0000
0000
0000
0000
0000
0000
0000
0000
C200
0000
0000
0000
0000
0000
0000
0000
0000
3E00
0000
0000
0000
0000
4000
BC00
0000
C000
0000
0000
0000
0000
0000
0000
0000
0000
0000
0000
0000
0000
B800
0000
0000
0000
0000
0000
0000
0000
0000
0000
0000
0000
3800
0000
0000
3E00
0000
0000
0000
C400
0000
C000
0000
0000
3E00
0000
0000
0000
0000
0000
0000
0000
0000
0000
0000
0000
0000
0000
C000
C000
0000
0000
3800
0000
0000
3C00
0000
0000
0000
0000
0000
0000
0000
C400
0000
0000
4400
BE00
0000
0000
0000
0000
0000
0000
0000
0000
B800
0000
0000
0000
0000
0000
0000
0000
0000
0000
0000
0000
4000
0000
0000
0000
0000
0000
0000
0000
BE00
0000
0000
0000
0000
4200
3800
0000
0000
0000
0000
0000
0000
BE00
0000
0000
0000
0000
0000
0000
0000
0000
0000
BE00
0000
0000
0000
0000
0000
0000
0000
4200
0000
0000
C400
0000
4400
3C00
C200
0000
0000
0000
C000
0000
0000
0000
0000
0000
0000
0000
0000
0000
0000
4200
0000
0000
0000
0000
0000
0000
0000
3800
3E00
3C00
B800
0000
0000
0000
0000
0000
0000
0000
C200
0000
0000
0000
0000
0000
0000
0000
C200
0000
0000
0000
0000
3C00
0000
0000
4200
0000
3E00
0000
4000
0000
0000
0000
0000
0000
0000
0000
0000
3C00
0000
0000
0000
0000
0000
0000
0000
C200
0000
0000
0000
0000
0000
0000
0000
0000
0000
0000
4200
BC00
4200
C000
0000
0000
4000
0000
0000
3E00
0000
4400
0000
0000
0000
0000
3800
0000
0000
0000
0000
0000
0000
4000
C000
0000
0000
4400
0000
3E00
0000
C000
0000
0000
0000
0000
C400
0000
BE00
0000
0000
0000
0000
0000
0000
0000
0000
0000
0000
0000
4400
0000
0000
0000
3800
0000
0000
0000
4000
0000
C400
0000
0000
BE00
C200
0000
C400
0000
0000
0000
0000
0000
0000
0000
0000
0000
0000
C000
0000
0000
0000
B800
0000
0000
BE00
B800
0000
0000
0000
0000
3C00
3800
0000
0000
0000
3800
0000
0000
0000
0000
C200
0000
0000
0000
0000
0000
0000
0000
0000
0000
3E00
3800
B800
0000
3E00
3C00
0000
0000
0000
0000
0000
4000
C400
0000
0000
3800
C000
0000
0000
0000
C400
0000
0000
0000
BC00
0000
0000
0000
3E00
4200
0000
0000
0000
0000
0000
0000
0000
0000
BC00
B800
0000
0000
0000
BE00
0000
0000
0000
0000
0000
0000
0000
0000
0000
C000
0000
0000
0000
0000
0000
C200
3E00
0000
C400
0000
0000
0000
0000
0000
4400
0000
0000
0000
0000
C000
0000
0000
3E00
0000
B800
3E00
BC00
0000
0000
0000
BE00
BE00
0000
0000
0000
0000
0000
0000
0000
0000
0000
0000
0000
0000
0000
0000
0000
0000
0000
0000
0000
0000
0000
0000
0000
0000
0000
0000
0000
0000
0000
4200
0000
0000
C200
0000
0000
0000
0000
0000
0000
0000
4000
0000
0000
0000
0000
0000
0000
0000
0000
0000
0000
0000
0000
0000
0000
0000
0000
4400
0000
4200
0000
0000
0000
0000
C400
0000
0000
0000
0000
0000
4400
0000
3800
0000
0000
0000
0000
4200
0000
0000
0000
0000
0000
3800
0000
0000
0000
0000
0000
0000
0000
0000
0000
C400
0000
0000
0000
0000
0000
0000
0000
0000
0000
0000
0000
0000
0000
0000
0000
0000
0000
0000
0000
0000
0000
0000
0000
3800
0000
0000
BE00
0000
BC00
BE00
0000
3800
0000
0000
0000
0000
0000
B800
0000
0000
0000
BC00
0000
0000
0000
4400
0000
0000
BE00
0000
0000
0000
0000
0000
0000
0000
0000
0000
4200
4200
0000
0000
0000
0000
BE00
0000
0000
BC00
4400
0000
0000
0000
0000
0000
0000
0000
0000
0000
0000
0000
0000
0000
0000
0000
0000
0000
0000
0000
0000
C400
0000
0000
0000
0000
0000
0000
C000
3C00
0000
3800
0000
0000
0000
0000
0000
0000
0000
3C00
0000
0000
0000
0000
0000
0000
0000
0000
0000
4000
B800
0000
0000
0000
0000
0000
C400
0000
0000
BC00
BE00
0000
0000
0000
3C00
3800
0000
0000
0000
0000
3E00
BC00
0000
0000
0000
3C00
0000
0000
0000
0000
0000
4000
0000
0000
0000
0000
0000
0000
0000
0000
0000
0000
0000
0000
0000
0000
0000
3E00
0000
0000
0000
0000
3800
0000
0000
0000
0000
C400
0000
0000
0000
0000
0000
0000
0000
0000
0000
0000
0000
3E00
0000
0000
0000
0000
0000
C200
B800
0000
0000
0000
0000
0000
0000
0000
0000
0000
0000
0000
B800
0000
BC00
3E00
0000
0000
0000
0000
0000
C000
0000
0000
BC00
3C00
0000
0000
0000
0000
0000
0000
0000
0000
0000
0000
0000
0000
0000
0000
0000
C000
0000
0000
0000
0000
0000
0000
0000
0000
0000
0000
4000
0000
0000
3C00
0000
0000
0000
0000
0000
0000
0000
4200
0000
0000
3C00
0000
C000
0000
0000
0000
0000
0000
0000
0000
0000
0000
0000
0000
3E00
0000
0000
0000
0000
0000
0000
0000
0000
0000
C400
0000
C200
0000
0000
4000
3E00
0000
B800
0000
BC00
0000
0000
0000
0000
0000
0000
3C00
0000
0000
0000
0000
0000
0000
0000
0000
BC00
BC00
0000
0000
C200
0000
0000
B800
0000
0000
0000
0000
0000
3E00
0000
0000
4200
BC00
0000
3E00
0000
C400
0000
0000
0000
0000
3C00
0000
0000
BC00
0000
0000
0000
0000
0000
0000
C200
0000
0000
4400
3E00
C400
0000
0000
0000
0000
BC00
0000
0000
0000
0000
0000
0000
0000
0000
0000
0000
0000
0000
0000
0000
0000
0000
0000
0000
0000
0000
0000
4400
0000
0000
0000
0000
0000
3E00
0000
0000
0000
0000
BC00
0000
4200
0000
0000
0000
0000
0000
0000
0000
0000
BC00
BE00
0000
0000
BC00
0000
0000
0000
0000
0000
0000
0000
3E00
0000
0000
0000
0000
0000
0000
0000
0000
0000
0000
0000
0000
0000
0000
0000
0000
0000
0000
0000
3800
0000
3E00
0000
0000
0000
0000
0000
0000
0000
0000
B800
0000
0000
0000
0000
0000
0000
0000
0000
0000
0000
0000
0000
0000
0000
BE00
0000
0000
0000
3E00
0000
0000
C200
0000
3800
0000
0000
0000
0000
C400
0000
BE00
0000
0000
0000
0000
B800
0000
3C00
0000
0000
0000
0000
0000
0000
0000
0000
3C00
0000
0000
C000
0000
3C00
4200
0000
4000
0000
0000
0000
0000
0000
0000
0000
C400
4000
0000
0000
0000
0000
0000
0000
4400
0000
0000
0000
0000
0000
0000
0000
0000
0000
0000
0000
0000
0000
4400
0000
0000
0000
0000
BE00
0000
0000
0000
0000
0000
0000
0000
0000
0000
0000
0000
0000
0000
0000
0000
BC00
0000
0000
0000
0000
4400
B800
BE00
0000
4200
0000
0000
0000
0000
0000
0000
0000
0000
0000
0000
0000
0000
C000
0000
0000
C200
0000
0000
0000
BE00
0000
0000
0000
0000
0000
0000
0000
0000
0000
0000
0000
0000
0000
0000
0000
4000
B800
0000
3E00
0000
0000
0000
0000
C200
3800
3800
0000
0000
B800
0000
C400
0000
C400
0000
0000
0000
0000
0000
0000
0000
0000
B800
0000
0000
0000
0000
0000
0000
0000
3800
4200
0000
0000
0000
BC00
0000
0000
3E00
0000
C200
0000
0000
BE00
0000
3C00
0000
C000
C200
0000
4200
C200
0000
B800
0000
0000
0000
4000
0000
0000
0000
0000
0000
0000
0000
0000
0000
0000
0000
0000
0000
4000
0000
4000
0000
3C00
0000
C200
B800
0000
0000
0000
0000
0000
3C00
0000
0000
0000
0000
0000
0000
0000
0000
0000
0000
BE00
3C00
3800
0000
BC00
0000
0000
0000
0000
0000
0000
0000
0000
0000
0000
0000
0000
0000
0000
0000
0000
0000
0000
0000
0000
0000
0000
0000
0000
0000
0000
0000
0000
0000
0000
0000
C400
0000
0000
3E00
C200
0000
0000
0000
0000
0000
0000
BE00
0000
0000
0000
0000
0000
0000
0000
0000
4200
0000
B800
0000
0000
0000
0000
0000
C000
0000
0000
0000
0000
0000
0000
0000
0000
0000
0000
C400
0000
0000
0000
0000
0000
0000
0000
0000
0000
0000
4400
B800
0000
3E00
3E00
0000
0000
0000
C400
0000
0000
0000
0000
3800
0000
0000
0000
4400
0000
0000
0000
0000
C400
BE00
BE00
0000
C400
0000
0000
0000
0000
0000
0000
0000
4200
0000
0000
0000
0000
0000
0000
3E00
C000
0000
0000
0000
0000
0000
0000
0000
C200
0000
0000
3800
0000
0000
0000
3800
0000
0000
C200
0000
0000
4400
0000
0000
4000
0000
0000
4000
3C00
0000
0000
0000
0000
0000
0000
0000
3E00
0000
0000
0000
4000
4200
0000
0000
0000
0000
0000
0000
0000
0000
0000
0000
0000
0000
0000
0000
0000
0000
0000
0000
0000
0000
0000
0000
0000
0000
0000
0000
0000
0000
0000
BC00
C400
0000
3800
0000
0000
0000
0000
B800
0000
0000
0000
C400
0000
0000
0000
0000
0000
0000
0000
0000
0000
0000
0000
0000
0000
0000
0000
0000
4200
0000
C000
0000
0000
0000
0000
0000
0000
4200
0000
0000
4200
C400
0000
0000
4200
3800
0000
0000
0000
0000
0000
4000
3800
0000
3C00
0000
BC00
BC00
0000
0000
B800
0000
0000
0000
0000
0000
0000
0000
0000
0000
0000
0000
4000
C000
3C00
4400
0000
0000
0000
0000
0000
0000
0000
0000
4200
0000
0000
3C00
0000
0000
0000
0000
0000
0000
0000
0000
0000
0000
0000
C400
0000
0000
0000
0000
C000
0000
0000
0000
BE00
0000
0000
3E00
0000
0000
0000
0000
0000
C200
0000
0000
0000
0000
3E00
0000
0000
4200
0000
BE00
C200
0000
4200
0000
0000
0000
0000
C400
0000
0000
0000
B800
0000
0000
0000
0000
0000
0000
0000
0000
0000
0000
0000
0000
0000
0000
C200
0000
BE00
0000
BE00
C000
0000
0000
0000
0000
0000
0000
0000
0000
0000
C000
0000
0000
0000
0000
0000
4000
0000
0000
0000
0000
0000
0000
4400
0000
0000
0000
0000
0000
C000
0000
3E00
0000
0000
0000
0000
0000
0000
0000
4400
4000
0000
0000
0000
4400
0000
0000
0000
C200
0000
0000
0000
0000
0000
0000
4400
0000
0000
0000
4000
0000
0000
0000
4400
0000
0000
0000
0000
0000
0000
3C00
0000
0000
0000
0000
0000
0000
0000
0000
0000
C000
0000
3C00
0000
0000
0000
C000
0000
0000
3E00
0000
3800
B800
0000
0000
0000
C000
0000
0000
C000
0000
BE00
0000
0000
0000
0000
3C00
0000
0000
0000
0000
0000
0000
B800
0000
0000
0000
0000
C200
0000
BE00
0000
0000
B800
0000
0000
4200
0000
4000
4200
C000
0000
0000
0000
0000
0000
0000
0000
0000
0000
BE00
0000
0000
4200
0000
0000
4200
0000
0000
0000
0000
0000
0000
0000
C400
0000
0000
0000
0000
0000
0000
0000
C400
0000
4200
0000
0000
0000
0000
0000
0000
0000
BE00
0000
0000
0000
0000
3E00
0000
3800
0000
0000
0000
0000
0000
0000
4400
0000
0000
0000
0000
0000
4000
0000
B800
4200
0000
0000
0000
0000
0000
4200
0000
0000
0000
0000
0000
0000
0000
0000
4000
0000
B800
0000
0000
0000
0000
4000
0000
0000
0000
BE00
0000
4400
0000
0000
0000
0000
0000
0000
0000
C400
0000
0000
0000
4200
4200
0000
0000
0000
0000
4000
0000
0000
0000
3800
0000
0000
0000
0000
0000
0000
0000
0000
BC00
0000
4200
0000
0000
3E00
4000
4200
3800
0000
0000
C200
0000
0000
0000
0000
0000
0000
0000
0000
4200
0000
3E00
0000
0000
0000
0000
C000
0000
0000
0000
0000
0000
0000
BE00
4200
0000
0000
3E00
0000
0000
0000
0000
0000
0000
0000
0000
0000
0000
0000
C200
0000
0000
B800
0000
3E00
0000
4400
0000
0000
0000
BE00
0000
0000
4400
0000
0000
0000
0000
0000
0000
0000
0000
0000
0000
0000
0000
0000
0000
C000
0000
0000
0000
0000
BC00
0000
0000
0000
0000
0000
0000
C400
B800
0000
4400
0000
C400
0000
3C00
0000
0000
0000
0000
0000
0000
C200
0000
4400
0000
C000
0000
0000
0000
0000
0000
0000
0000
0000
0000
0000
4200
0000
0000
C000
0000
0000
0000
0000
0000
0000
0000
0000
0000
0000
0000
3800
0000
BC00
0000
0000
C200
0000
0000
0000
0000
3E00
0000
0000
0000
0000
C000
0000
3E00
0000
BE00
3E00
0000
0000
0000
C200
0000
4200
0000
0000
0000
0000
0000
0000
0000
0000
0000
0000
4200
0000
0000
0000
BE00
0000
0000
0000
0000
0000
0000
0000
0000
0000
0000
0000
0000
0000
0000
3E00
0000
0000
C200
0000
0000
0000
0000
0000
0000
0000
BC00
0000
0000
4000
4000
3E00
0000
0000
0000
0000
0000
0000
C400
0000
3E00
0000
0000
0000
0000
0000
0000
0000
0000
C000
0000
BE00
0000
0000
0000
0000
0000
0000
BC00
0000
0000
4200
3800
0000
0000
0000
0000
0000
0000
3E00
0000
0000
0000
B800
BC00
0000
0000
0000
0000
0000
0000
3800
4400
0000
C000
0000
0000
0000
0000
0000
4000
C200
4000
0000
0000
0000
0000
0000
BE00
0000
0000
0000
3C00
0000
0000
0000
4000
0000
0000
0000
0000
0000
0000
C200
0000
0000
0000
C400
0000
0000
C400
0000
0000
0000
0000
0000
0000
0000
0000
0000
0000
0000
0000
0000
0000
3E00
B800
0000
0000
0000
C000
0000
0000
0000
0000
0000
BE00
0000
4200
0000
0000
0000
0000
0000
0000
0000
C200
B800
0000
0000
0000
0000
0000
0000
0000
0000
0000
4000
0000
0000
0000
0000
0000
3E00
0000
0000
0000
C000
0000
0000
C400
3800
3C00
B800
0000
BE00
0000
3800
0000
0000
3800
0000
0000
0000
0000
0000
0000
0000
3800
0000
0000
0000
0000
4400
0000
0000
0000
0000
0000
0000
0000
0000
0000
0000
0000
0000
C400
0000
0000
0000
4200
0000
0000
0000
0000
0000
3C00
0000
0000
0000
0000
4400
3C00
0000
0000
0000
0000
0000
0000
0000
0000
0000
0000
0000
0000
0000
0000
C400
0000
0000
0000
0000
0000
0000
0000
0000
0000
0000
0000
0000
0000
0000
0000
0000
3C00
0000
0000
0000
C400
0000
0000
0000
0000
0000
4400
0000
0000
0000
0000
C000
0000
0000
0000
C000
0000
0000
0000
0000
0000
4200
C200
0000
0000
C200
0000
0000
0000
0000
0000
0000
0000
0000
0000
4200
0000
BC00
0000
0000
0000
0000
0000
BE00
0000
B800
3800
0000
0000
0000
0000
0000
0000
0000
B800
0000
0000
0000
0000
0000
0000
C000
BC00
0000
0000
0000
0000
0000
0000
0000
0000
0000
0000
4400
0000
0000
3800
0000
0000
0000
0000
3800
0000
0000
0000
0000
0000
0000
0000
C200
0000
0000
4400
0000
0000
4000
0000
0000
0000
0000
0000
0000
0000
0000
0000
0000
0000
0000
C200
0000
0000
0000
0000
0000
4200
0000
0000
0000
0000
0000
4200
0000
0000
0000
0000
0000
0000
0000
0000
C200
3800
BC00
0000
3C00
0000
4400
3C00
C400
BE00
4200
3800
0000
0000
3C00
0000
0000
0000
0000
0000
0000
C400
4400
0000
3800
0000
BE00
0000
0000
0000
0000
0000
0000
3C00
BE00
0000
0000
3E00
C200
0000
0000
3C00
0000
0000
0000
4400
0000
0000
0000
0000
0000
0000
0000
0000
0000
0000
0000
0000
0000
0000
C200
3C00
0000
0000
0000
0000
0000
0000
BC00
BC00
0000
4400
0000
0000
C200
0000
0000
0000
0000
0000
0000
0000
0000
0000
0000
0000
3C00
0000
0000
0000
0000
0000
0000
0000
0000
0000
0000
0000
0000
0000
0000
0000
0000
0000
4000
4400
B800
C400
0000
0000
0000
0000
0000
0000
0000
BE00
0000
0000
0000
C200
3C00
0000
4000
0000
0000
0000
0000
0000
3800
0000
0000
0000
0000
0000
4200
0000
4000
0000
0000
0000
3C00
0000
0000
0000
0000
0000
3C00
4000
0000
0000
0000
0000
0000
C000
B800
0000
0000
BE00
0000
0000
0000
0000
0000
0000
0000
0000
0000
0000
0000
0000
0000
0000
0000
0000
0000
0000
0000
0000
4400
0000
0000
0000
0000
0000
0000
BE00
0000
0000
0000
0000
0000
0000
0000
0000
0000
4000
0000
0000
0000
3800
4000
0000
3E00
0000
0000
0000
0000
0000
0000
3800
0000
0000
0000
0000
BC00
3C00
0000
0000
C400
C000
0000
0000
0000
BC00
BE00
0000
0000
4400
4000
BE00
0000
0000
0000
0000
BE00
0000
0000
0000
0000
0000
0000
4400
0000
0000
0000
0000
0000
0000
0000
4000
0000
0000
0000
0000
0000
0000
0000
0000
0000
0000
0000
0000
0000
0000
0000
0000
0000
0000
0000
0000
0000
0000
3800
0000
0000
0000
0000
0000
0000
0000
0000
4000
C200
B800
0000
0000
0000
BE00
BE00
BE00
0000
0000
0000
0000
4200
0000
0000
0000
0000
0000
0000
3E00
0000
0000
0000
C400
B800
0000
4200
0000
B800
3E00
4000
0000
3E00
0000
0000
4400
0000
0000
0000
0000
0000
0000
C400
0000
C400
0000
0000
0000
C000
0000
0000
3800
4200
0000
0000
0000
0000
0000
0000
0000
0000
3C00
0000
0000
0000
0000
0000
0000
4000
0000
0000
3C00
BC00
0000
4200
0000
0000
0000
3E00
0000
0000
0000
0000
0000
0000
4400
3800
4400
0000
4200
0000
0000
0000
0000
BE00
0000
0000
0000
0000
0000
0000
0000
0000
BE00
0000
0000
0000
0000
0000
0000
BC00
3800
0000
0000
0000
0000
0000
0000
0000
0000
C000
C200
0000
0000
0000
3800
3C00
0000
0000
0000
B800
0000
4200
0000
C000
0000
0000
0000
0000
BE00
0000
0000
C200
0000
C000
0000
0000
C400
0000
0000
B800
0000
0000
0000
0000
0000
0000
0000
0000
0000
4000
0000
0000
4000
0000
0000
C200
0000
0000
0000
0000
4000
0000
0000
3E00
0000
0000
0000
0000
0000
0000
0000
C400
0000
0000
0000
BC00
0000
4000
C400
0000
0000
0000
0000
0000
0000
0000
BE00
3800
0000
0000
0000
4400
0000
0000
0000
0000
0000
0000
0000
3E00
C200
0000
C000
4000
0000
C200
0000
3E00
0000
0000
0000
0000
C400
0000
0000
0000
0000
0000
0000
0000
0000
0000
0000
0000
0000
0000
0000
0000
0000
0000
0000
B800
0000
0000
3C00
0000
0000
0000
0000
C400
0000
0000
0000
0000
0000
0000
0000
0000
0000
0000
0000
0000
0000
0000
0000
3C00
0000
0000
B800
0000
0000
0000
0000
0000
0000
0000
0000
0000
0000
BC00
C200
0000
0000
0000
0000
C000
C400
C400
0000
0000
BE00
0000
0000
0000
0000
0000
0000
0000
3800
BC00
0000
0000
0000
3C00
0000
3C00
C200
0000
0000
0000
3800
0000
0000
0000
0000
C000
0000
0000
0000
0000
0000
0000
0000
0000
0000
0000
0000
0000
4400
0000
0000
0000
0000
0000
0000
0000
0000
0000
3800
0000
0000
0000
3E00
0000
4000
0000
4200
0000
0000
0000
3800
0000
3E00
0000
0000
0000
0000
0000
0000
0000
BE00
C000
0000
0000
BE00
0000
0000
B800
0000
0000
0000
0000
0000
0000
4200
3800
0000
0000
0000
0000
0000
0000
0000
0000
0000
0000
0000
0000
0000
0000
B800
0000
0000
0000
0000
0000
0000
0000
0000
0000
0000
0000
3C00
0000
0000
4200
0000
0000
0000
0000
0000
0000
4000
0000
0000
0000
0000
B800
0000
0000
0000
0000
0000
0000
0000
0000
0000
0000
0000
C400
0000
0000
0000
0000
0000
0000
4200
0000
0000
B800
0000
0000
4400
C400
C200
0000
0000
0000
0000
0000
0000
0000
0000
0000
0000
0000
0000
C400
0000
0000
0000
BC00
0000
0000
3C00
0000
BE00
0000
0000
0000
0000
0000
0000
0000
4000
0000
0000
0000
0000
0000
0000
0000
0000
0000
0000
4200
0000
0000
0000
0000
0000
0000
0000
0000
0000
0000
0000
4200
4000
0000
3C00
0000
0000
0000
0000
0000
0000
0000
0000
0000
0000
0000
0000
0000
C000
0000
0000
0000
C200
0000
0000
4200
0000
0000
0000
0000
4200
0000
0000
0000
BC00
0000
4400
0000
0000
0000
0000
0000
0000
0000
0000
0000
0000
3E00
4400
3800
0000
3E00
0000
4000
0000
0000
0000
0000
0000
0000
0000
0000
3E00
0000
0000
0000
0000
0000
0000
C200
0000
0000
0000
0000
0000
0000
C200
0000
0000
0000
B800
0000
3E00
0000
0000
0000
0000
0000
0000
0000
0000
C400
0000
0000
0000
0000
0000
0000
0000
0000
C400
0000
0000
3C00
0000
0000
0000
0000
0000
0000
0000
0000
0000
0000
0000
C400
3E00
0000
0000
0000
3C00
0000
3C00
0000
0000
0000
0000
0000
0000
0000
0000
0000
C200
0000
0000
BC00
0000
0000
0000
0000
BC00
0000
C200
0000
0000
C200
4200
0000
0000
0000
0000
0000
0000
0000
0000
0000
3C00
0000
0000
3E00
0000
0000
0000
0000
0000
0000
0000
0000
0000
0000
0000
0000
0000
0000
0000
0000
0000
0000
0000
0000
4400
0000
0000
4000
0000
0000
0000
3E00
0000
0000
C200
0000
0000
0000
0000
0000
3E00
0000
0000
4000
0000
0000
3800
0000
0000
3800
0000
0000
4400
0000
C400
0000
0000
0000
BC00
0000
0000
0000
0000
0000
0000
0000
4400
0000
4200
C000
0000
0000
0000
0000
0000
0000
0000
3C00
0000
0000
0000
B800
0000
4000
BC00
0000
0000
0000
4200
0000
0000
C000
0000
0000
C200
0000
4000
4400
0000
0000
0000
0000
0000
0000
4400
0000
0000
0000
BC00
0000
0000
0000
0000
0000
0000
0000
0000
0000
0000
0000
0000
0000
0000
4400
0000
0000
0000
0000
0000
0000
0000
0000
0000
0000
0000
3800
0000
0000
4400
0000
0000
0000
0000
0000
3C00
4200
3E00
0000
0000
0000
0000
B800
0000
0000
0000
0000
0000
BE00
0000
0000
0000
0000
0000
0000
0000
C400
0000
0000
0000
4400
3C00
0000
0000
0000
4200
0000
0000
0000
0000
0000
0000
0000
0000
0000
0000
3800
4400
3800
0000
0000
0000
0000
0000
0000
0000
0000
0000
0000
0000
0000
BC00
0000
C400
0000
0000
3800
0000
4200
0000
0000
0000
0000
0000
0000
0000
0000
0000
B800
0000
0000
0000
0000
0000
0000
BC00
0000
0000
0000
0000
0000
0000
0000
0000
0000
4200
0000
3800
0000
0000
0000
0000
BE00
0000
4000
0000
C200
0000
0000
0000
0000
0000
0000
0000
0000
0000
0000
B800
0000
B800
0000
C200
C400
3C00
0000
0000
0000
0000
0000
0000
0000
C000
0000
0000
4200
0000
0000
0000
0000
B800
C200
3C00
0000
0000
0000
0000
0000
0000
0000
0000
C400
0000
B800
C000
0000
0000
0000
0000
4000
BC00
0000
0000
0000
0000
0000
3C00
0000
0000
0000
0000
0000
0000
0000
0000
0000
0000
0000
4000
0000
0000
3E00
0000
0000
0000
0000
BC00
0000
0000
0000
0000
3E00
3C00
B800
3800
0000
0000
4000
0000
0000
0000
0000
0000
0000
0000
BC00
0000
0000
0000
0000
0000
0000
0000
C400
0000
0000
0000
0000
0000
3E00
0000
0000
4000
0000
BC00
0000
0000
B800
BE00
0000
0000
0000
C200
C200
0000
0000
0000
B800
0000
C400
0000
0000
0000
0000
4400
0000
0000
0000
0000
0000
0000
C000
BE00
C000
0000
0000
0000
0000
0000
0000
0000
C400
4200
0000
0000
0000
0000
0000
0000
3800
0000
4200
3800
4200
0000
0000
0000
4400
0000
B800
0000
C000
0000
0000
0000
0000
0000
0000
0000
0000
0000
0000
0000
4000
0000
0000
0000
0000
0000
0000
0000
0000
0000
C000
0000
0000
BC00
0000
0000
C200
0000
0000
0000
0000
4400
0000
0000
0000
0000
0000
0000
0000
0000
0000
0000
BC00
0000
0000
BE00
3800
0000
0000
0000
0000
0000
0000
0000
0000
0000
4000
C400
0000
0000
0000
0000
0000
0000
4000
BE00
0000
4400
BC00
3800
BC00
4200
0000
0000
0000
0000
0000
3800
0000
0000
0000
C200
C200
4400
0000
0000
C000
0000
0000
0000
0000
0000
0000
0000
0000
0000
0000
3C00
BE00
0000
0000
0000
3800
3E00
0000
4200
4000
0000
0000
0000
0000
0000
0000
0000
0000
4200
0000
0000
0000
0000
0000
0000
0000
0000
0000
0000
0000
0000
0000
0000
0000
0000
0000
C400
0000
0000
0000
0000
0000
0000
0000
0000
0000
C200
0000
0000
0000
0000
0000
0000
0000
0000
0000
C200
3C00
0000
0000
0000
0000
0000
0000
0000
0000
0000
0000
0000
0000
B800
0000
0000
0000
0000
0000
0000
0000
0000
0000
0000
0000
0000
4400
0000
0000
0000
B800
0000
C000
C200
0000
0000
0000
0000
0000
C200
0000
0000
0000
0000
0000
0000
0000
0000
0000
0000
0000
0000
0000
0000
0000
4000
0000
0000
0000
0000
0000
0000
0000
0000
0000
0000
0000
0000
0000
4200
C000
3C00
0000
4200
0000
0000
0000
0000
0000
0000
0000
0000
0000
0000
0000
4400
3E00
0000
0000
0000
0000
0000
4200
4200
0000
0000
3C00
3C00
0000
0000
0000
0000
3E00
BC00
0000
0000
0000
0000
0000
0000
0000
0000
0000
BE00
0000
0000
3800
0000
0000
0000
0000
3800
0000
0000
0000
0000
0000
0000
0000
0000
0000
0000
0000
C200
0000
3E00
0000
3E00
0000
0000
0000
0000
0000
0000
0000
0000
0000
4400
3C00
0000
0000
0000
0000
0000
0000
C000
0000
0000
0000
0000
0000
0000
B800
0000
0000
0000
0000
0000
0000
4200
0000
BE00
0000
0000
0000
0000
B800
B800
C000
C200
0000
4400
0000
C000
0000
0000
0000
0000
0000
0000
0000
C400
0000
0000
C200
BE00
0000
C000
3800
0000
0000
4200
C000
0000
0000
4200
0000
4400
C000
0000
0000
3E00
0000
4400
0000
0000
0000
0000
0000
0000
0000
0000
0000
0000
0000
0000
0000
0000
0000
0000
0000
3E00
0000
0000
4400
0000
0000
0000
0000
4200
0000
0000
0000
0000
0000
0000
0000
0000
BE00
0000
C400
0000
0000
BE00
0000
0000
0000
3800
0000
3C00
0000
4200
B800
0000
0000
C200
0000
0000
0000
0000
0000
0000
0000
0000
4000
0000
3E00
0000
4400
0000
0000
0000
0000
0000
BE00
B800
0000
0000
0000
0000
0000
0000
0000
3C00
0000
0000
0000
0000
0000
0000
0000
0000
0000
C200
0000
0000
0000
0000
0000
0000
BE00
0000
0000
0000
0000
0000
0000
3800
3C00
BE00
0000
0000
0000
0000
0000
0000
0000
0000
0000
0000
0000
0000
0000
0000
0000
0000
0000
BE00
0000
0000
0000
0000
0000
0000
0000
0000
0000
0000
4200
C000
0000
C400
0000
4200
0000
0000
BC00
0000
0000
0000
0000
0000
0000
0000
0000
0000
0000
0000
0000
C000
0000
0000
B800
0000
3800
0000
0000
0000
0000
0000
0000
0000
0000
3E00
0000
0000
0000
0000
0000
B800
0000
0000
0000
3E00
B800
0000
0000
0000
0000
0000
C200
0000
0000
0000
0000
C200
0000
0000
0000
0000
BE00
0000
B800
0000
0000
0000
3C00
C400
0000
0000
0000
0000
0000
BE00
0000
3E00
0000
0000
0000
0000
0000
0000
0000
0000
0000
BC00
0000
4200
0000
0000
B800
0000
0000
0000
0000
C200
C400
0000
0000
3C00
0000
0000
0000
0000
C400
0000
0000
0000
0000
0000
C400
0000
C200
4000
0000
4000
0000
0000
0000
B800
C000
0000
0000
0000
0000
0000
0000
0000
0000
0000
0000
0000
0000
0000
0000
0000
3E00
0000
0000
0000
3E00
C200
4000
0000
B800
0000
0000
0000
0000
0000
0000
0000
BC00
0000
0000
0000
0000
0000
0000
0000
3C00
0000
0000
0000
0000
3800
0000
0000
0000
0000
0000
0000
0000
0000
0000
0000
0000
4000
B800
0000
0000
C400
0000
C200
0000
0000
0000
0000
0000
0000
0000
0000
C400
0000
3800
C000
3E00
0000
0000
0000
0000
0000
3E00
BE00
0000
0000
0000
0000
0000
0000
0000
0000
0000
0000
0000
0000
0000
0000
0000
0000
0000
C000
3800
0000
3800
0000
0000
BE00
0000
C000
0000
0000
4400
0000
0000
BC00
0000
0000
0000
0000
0000
0000
0000
4200
BE00
B800
C200
0000
C200
0000
4400
0000
0000
0000
0000
0000
0000
0000
0000
0000
0000
3C00
3800
0000
BC00
0000
0000
0000
0000
0000
0000
0000
0000
0000
B800
C400
0000
4200
0000
4200
0000
0000
0000
0000
0000
0000
0000
BE00
0000
0000
3800
0000
0000
0000
0000
0000
0000
3C00
0000
0000
3C00
0000
0000
BC00
4200
0000
0000
0000
0000
0000
0000
0000
0000
0000
0000
0000
0000
0000
0000
0000
0000
0000
0000
0000
0000
3C00
0000
0000
0000
0000
3C00
0000
0000
4000
0000
0000
0000
0000
BE00
0000
0000
0000
0000
0000
0000
0000
4000
0000
0000
0000
0000
0000
0000
0000
4400
0000
0000
0000
C000
0000
0000
0000
0000
0000
0000
4000
0000
0000
0000
0000
0000
0000
0000
0000
0000
BC00
0000
0000
0000
0000
0000
0000
0000
0000
0000
0000
0000
BC00
0000
0000
0000
0000
0000
4000
4200
0000
0000
0000
0000
0000
0000
C400
0000
C200
0000
0000
0000
0000
0000
4400
0000
0000
0000
0000
0000
0000
4000
0000
0000
0000
0000
0000
0000
0000
0000
0000
0000
0000
0000
0000
0000
0000
BE00
0000
0000
4400
0000
0000
B800
0000
0000
0000
0000
0000
0000
0000
0000
0000
0000
BE00
0000
B800
0000
0000
0000
0000
C000
0000
0000
BC00
0000
0000
0000
0000
0000
0000
B800
4400
0000
0000
0000
0000
0000
C000
0000
C000
0000
0000
0000
0000
0000
C000
0000
4000
0000
0000
0000
0000
0000
3800
3800
C200
0000
0000
0000
0000
3C00
C200
0000
0000
BE00
B800
0000
0000
0000
0000
4400
0000
0000
0000
0000
0000
0000
BE00
0000
0000
0000
0000
0000
3800
0000
0000
0000
0000
B800
0000
4000
C400
0000
0000
0000
0000
0000
0000
0000
0000
0000
0000
0000
0000
0000
0000
0000
0000
0000
0000
0000
4000
0000
0000
0000
BE00
0000
0000
0000
0000
0000
0000
BE00
0000
0000
C200
B800
0000
BC00
0000
0000
0000
0000
0000
0000
3E00
0000
0000
0000
4400
0000
C400
C400
C000
0000
0000
C200
0000
0000
0000
0000
0000
0000
BC00
0000
4200
0000
0000
0000
