0000
0000
0000
0000
0000
0000
0000
0000
0000
0000
0000
0000
0000
0000
B800
0000
0000
0000
4200
0000
0000
4200
0000
4000
0000
3C00
BE00
0000
0000
0000
0000
BC00
0000
0000
0000
0000
0000
0000
0000
0000
0000
0000
0000
0000
0000
0000
4400
0000
4400
0000
0000
0000
3E00
0000
0000
0000
0000
0000
0000
BC00
0000
0000
0000
0000
